// This file is automatically generated by NPU compiler.
const unsigned int total_size = 44594;
const unsigned int npu_size = 43818;
const char *version = "1.5.10.post4";
const char *pb_md5 = "4edea5d1c20961c20e7a0385f03795bb";
const char *npu_unit = "NPU32";
const char *model_info = "(20230901094950)";

const char *model_version = "sed_model_v0.0.5";
typedef unsigned short npu_data_t;

struct input {
	npu_data_t Feats[1][1][256][1];
	npu_data_t State_c0[1][64];
} __attribute__ ((packed));

struct output {
	npu_data_t model_State_c0_out[1][64];
	float model_probOut[1][2];
} __attribute__ ((packed));

struct in_out {
	npu_data_t Feats[1][1][256][1];
	npu_data_t State_c0[1][64];
	float model_probOut[1][2];
} __attribute__ ((packed));


const unsigned char cmd_content[2592] __attribute__ ((aligned(4))) DRAM0_NC_NPU_CMD_ATTR = {
	0x41, 0x01, 0x02, 0x00, 0x00, 0x00, 0x00, 0x30, 0x98, 0x06, 
	0x00, 0x60, 0x00, 0x00, 0x00, 0x10, 0x00, 0x00, 0x00, 0x00, 
	0x18, 0x00, 0x00, 0x60, 0x02, 0x00, 0x01, 0x00, 0x02, 0x01, 
	0x01, 0x01, 0x80, 0x00, 0x01, 0x00, 0x1d, 0x11, 0x00, 0x01, 
	0x66, 0x00, 0x00, 0x11, 0x80, 0x00, 0x01, 0x00, 0x00, 0x00, 
	0x00, 0x00, 0x98, 0xb6, 0x09, 0x1b, 0x00, 0x34, 0x00, 0x80, 
	0x01, 0x03, 0x02, 0x00, 0x00, 0x00, 0x00, 0x10, 0xb2, 0x06, 
	0x00, 0x60, 0x00, 0x00, 0x00, 0x00, 0x00, 0x02, 0x00, 0x10, 
	0x04, 0x00, 0x00, 0x00, 0x02, 0x80, 0x10, 0x00, 0x02, 0x00, 
	0x00, 0x01, 0x02, 0x00, 0x00, 0x01, 0x00, 0x00, 0x00, 0x00, 
	0x00, 0x00, 0x00, 0x00, 0x01, 0x01, 0x02, 0x00, 0x00, 0x02, 
	0x00, 0x10, 0x00, 0x00, 0x00, 0x00, 0x00, 0x00, 0x00, 0x00, 
	0x00, 0x00, 0x00, 0x10, 0x01, 0x00, 0x00, 0x00, 0x02, 0x80, 
	0x10, 0x00, 0x02, 0x00, 0x00, 0x01, 0x02, 0x00, 0x80, 0x00, 
	0x00, 0x00, 0x12, 0x00, 0x00, 0x00, 0x00, 0x00, 0x01, 0x03, 
	0x02, 0x00, 0x00, 0x00, 0x00, 0x10, 0xb6, 0x06, 0x00, 0x60, 
	0xba, 0x06, 0x00, 0x60, 0x00, 0x01, 0x00, 0x10, 0x08, 0x00, 
	0x00, 0x00, 0x02, 0x40, 0x10, 0x00, 0x02, 0x00, 0x80, 0x00, 
	0x02, 0x00, 0x80, 0x00, 0x00, 0x00, 0x00, 0x00, 0x00, 0x00, 
	0x00, 0x00, 0x01, 0x01, 0x02, 0x00, 0x00, 0x01, 0x00, 0x10, 
	0x00, 0x00, 0x00, 0x00, 0x00, 0x00, 0x00, 0x00, 0x00, 0x00, 
	0x00, 0x10, 0x10, 0x00, 0x00, 0x00, 0x40, 0x02, 0x10, 0x00, 
	0x40, 0x00, 0x80, 0x00, 0x40, 0x00, 0x80, 0x00, 0x00, 0x00, 
	0x00, 0x00, 0x00, 0x00, 0x00, 0x00, 0x41, 0x01, 0x02, 0x00, 
	0x00, 0x00, 0x00, 0x10, 0x3e, 0x0c, 0x00, 0x60, 0x00, 0x01, 
	0x00, 0x10, 0x00, 0x00, 0x00, 0x00, 0xbe, 0x06, 0x00, 0x60, 
	0x04, 0x00, 0x02, 0x00, 0x04, 0x02, 0x01, 0x01, 0x40, 0x00, 
	0x01, 0x00, 0x1b, 0x11, 0x00, 0x01, 0x55, 0x00, 0x00, 0x11, 
	0x40, 0x00, 0x01, 0x00, 0x00, 0x00, 0x00, 0x00, 0x01, 0xb9, 
	0x93, 0x1c, 0x00, 0x2c, 0x00, 0x80, 0x01, 0x03, 0x02, 0x00, 
	0x00, 0x01, 0x00, 0x10, 0x96, 0x0c, 0x00, 0x60, 0x00, 0x00, 
	0x00, 0x00, 0x00, 0x03, 0x00, 0x10, 0x04, 0x00, 0x00, 0x00, 
	0x04, 0x40, 0x10, 0x00, 0x04, 0x00, 0x00, 0x01, 0x04, 0x00, 
	0x00, 0x01, 0x00, 0x00, 0x00, 0x00, 0x00, 0x00, 0x00, 0x00, 
	0x01, 0x01, 0x02, 0x00, 0x00, 0x03, 0x00, 0x10, 0x00, 0x00, 
	0x00, 0x00, 0x00, 0x00, 0x00, 0x00, 0x00, 0x00, 0x00, 0x10, 
	0x01, 0x00, 0x00, 0x00, 0x04, 0x40, 0x10, 0x00, 0x04, 0x00, 
	0x00, 0x01, 0x04, 0x00, 0x80, 0x00, 0x00, 0x00, 0x12, 0x00, 
	0x00, 0x00, 0x00, 0x00, 0x01, 0x03, 0x02, 0x00, 0x00, 0x00, 
	0x00, 0x10, 0x9e, 0x0c, 0x00, 0x60, 0xa6, 0x0c, 0x00, 0x60, 
	0x00, 0x01, 0x00, 0x10, 0x08, 0x00, 0x00, 0x00, 0x04, 0x20, 
	0x10, 0x00, 0x04, 0x00, 0x80, 0x00, 0x04, 0x00, 0x80, 0x00, 
	0x00, 0x00, 0x00, 0x00, 0x00, 0x00, 0x00, 0x00, 0x01, 0x01, 
	0x02, 0x00, 0x00, 0x01, 0x00, 0x10, 0x00, 0x00, 0x00, 0x00, 
	0x00, 0x00, 0x00, 0x00, 0x00, 0x00, 0x00, 0x10, 0x10, 0x00, 
	0x00, 0x00, 0x40, 0x02, 0x10, 0x00, 0x40, 0x00, 0x80, 0x00, 
	0x40, 0x00, 0x80, 0x00, 0x00, 0x00, 0x00, 0x00, 0x00, 0x00, 
	0x00, 0x00, 0x41, 0x01, 0x02, 0x00, 0x00, 0x00, 0x00, 0x10, 
	0x2e, 0x11, 0x00, 0x60, 0x00, 0x01, 0x00, 0x10, 0x00, 0x00, 
	0x00, 0x00, 0xae, 0x0c, 0x00, 0x60, 0x04, 0x00, 0x04, 0x00, 
	0x04, 0x04, 0x01, 0x01, 0x20, 0x00, 0x01, 0x00, 0x19, 0x11, 
	0x00, 0x01, 0x44, 0x00, 0x00, 0x11, 0x20, 0x00, 0x01, 0x00, 
	0x00, 0x00, 0x00, 0x00, 0x9e, 0xb7, 0xed, 0x1b, 0x00, 0x24, 
	0x00, 0x80, 0x01, 0x03, 0x02, 0x00, 0x00, 0x01, 0x00, 0x10, 
	0xbe, 0x11, 0x00, 0x60, 0x00, 0x00, 0x00, 0x00, 0x00, 0x00, 
	0x00, 0x10, 0x04, 0x00, 0x00, 0x00, 0x04, 0x20, 0x10, 0x00, 
	0x04, 0x00, 0x80, 0x00, 0x04, 0x00, 0x80, 0x00, 0x00, 0x00, 
	0x00, 0x00, 0x00, 0x00, 0x00, 0x00, 0x01, 0x01, 0x02, 0x00, 
	0x00, 0x00, 0x00, 0x10, 0x00, 0x00, 0x00, 0x00, 0x00, 0x00, 
	0x00, 0x00, 0x00, 0x01, 0x00, 0x10, 0x01, 0x00, 0x00, 0x00, 
	0x04, 0x20, 0x10, 0x00, 0x04, 0x00, 0x80, 0x00, 0x04, 0x00, 
	0x40, 0x00, 0x00, 0x00, 0x12, 0x00, 0x00, 0x00, 0x00, 0x00, 
	0x01, 0x03, 0x02, 0x00, 0x00, 0x01, 0x00, 0x10, 0xc6, 0x11, 
	0x00, 0x60, 0xce, 0x11, 0x00, 0x60, 0x00, 0x00, 0x00, 0x10, 
	0x08, 0x00, 0x00, 0x00, 0x04, 0x10, 0x10, 0x00, 0x04, 0x00, 
	0x40, 0x00, 0x04, 0x00, 0x40, 0x00, 0x00, 0x00, 0x00, 0x00, 
	0x00, 0x00, 0x00, 0x00, 0x01, 0x01, 0x02, 0x00, 0x00, 0x00, 
	0x00, 0x10, 0x00, 0x00, 0x00, 0x00, 0x00, 0x00, 0x00, 0x00, 
	0x80, 0x00, 0x00, 0x10, 0x10, 0x00, 0x00, 0x00, 0x40, 0x01, 
	0x10, 0x00, 0x40, 0x00, 0x40, 0x00, 0x40, 0x00, 0x40, 0x00, 
	0x00, 0x00, 0x00, 0x00, 0x00, 0x00, 0x00, 0x00, 0x41, 0x01, 
	0x02, 0x00, 0x80, 0x00, 0x00, 0x10, 0x56, 0x15, 0x00, 0x60, 
	0x00, 0x01, 0x00, 0x10, 0x00, 0x00, 0x00, 0x00, 0xd6, 0x11, 
	0x00, 0x60, 0x08, 0x00, 0x04, 0x00, 0x08, 0x04, 0x01, 0x01, 
	0x10, 0x00, 0x01, 0x00, 0x17, 0x11, 0x00, 0x01, 0x33, 0x00, 
	0x00, 0x11, 0x10, 0x00, 0x01, 0x00, 0x00, 0x00, 0x00, 0x00, 
	0x6d, 0xb8, 0x0c, 0x1c, 0x00, 0x1c, 0x00, 0x80, 0x01, 0x03, 
	0x02, 0x00, 0x00, 0x01, 0x00, 0x10, 0x34, 0x16, 0x00, 0x60, 
	0x00, 0x00, 0x00, 0x00, 0x00, 0x00, 0x00, 0x10, 0x04, 0x00, 
	0x00, 0x00, 0x08, 0x10, 0x10, 0x00, 0x08, 0x00, 0x80, 0x00, 
	0x08, 0x00, 0x80, 0x00, 0x00, 0x00, 0x00, 0x00, 0x00, 0x00, 
	0x00, 0x00, 0x01, 0x01, 0x02, 0x00, 0x00, 0x00, 0x00, 0x10, 
	0x00, 0x00, 0x00, 0x00, 0x00, 0x00, 0x00, 0x00, 0x00, 0x01, 
	0x00, 0x10, 0x01, 0x00, 0x00, 0x00, 0x08, 0x10, 0x10, 0x00, 
	0x08, 0x00, 0x80, 0x00, 0x08, 0x00, 0x40, 0x00, 0x00, 0x00, 
	0x12, 0x00, 0x00, 0x00, 0x00, 0x00, 0x01, 0x03, 0x02, 0x00, 
	0x00, 0x01, 0x00, 0x10, 0x44, 0x16, 0x00, 0x60, 0x54, 0x16, 
	0x00, 0x60, 0x00, 0x00, 0x00, 0x10, 0x08, 0x00, 0x00, 0x00, 
	0x08, 0x08, 0x10, 0x00, 0x08, 0x00, 0x40, 0x00, 0x08, 0x00, 
	0x40, 0x00, 0x00, 0x00, 0x00, 0x00, 0x00, 0x00, 0x00, 0x00, 
	0x01, 0x01, 0x02, 0x00, 0x00, 0x00, 0x00, 0x10, 0x00, 0x00, 
	0x00, 0x00, 0x00, 0x00, 0x00, 0x00, 0x80, 0x00, 0x00, 0x10, 
	0x10, 0x00, 0x00, 0x00, 0x40, 0x01, 0x10, 0x00, 0x40, 0x00, 
	0x40, 0x00, 0x40, 0x00, 0x40, 0x00, 0x00, 0x00, 0x00, 0x00, 
	0x00, 0x00, 0x00, 0x00, 0x41, 0x01, 0x02, 0x00, 0x80, 0x00, 
	0x00, 0x10, 0xe4, 0x18, 0x00, 0x60, 0x00, 0x01, 0x00, 0x10, 
	0x00, 0x00, 0x00, 0x00, 0x64, 0x16, 0x00, 0x60, 0x10, 0x00, 
	0x08, 0x00, 0x10, 0x08, 0x01, 0x01, 0x08, 0x00, 0x01, 0x00, 
	0x15, 0x11, 0x00, 0x01, 0x22, 0x00, 0x00, 0x11, 0x08, 0x00, 
	0x01, 0x00, 0x00, 0x00, 0x00, 0x00, 0xaa, 0xb8, 0x8f, 0x1c, 
	0x00, 0x14, 0x00, 0x80, 0x01, 0x03, 0x02, 0x00, 0x00, 0x01, 
	0x00, 0x10, 0x5e, 0x1b, 0x00, 0x60, 0x00, 0x00, 0x00, 0x00, 
	0x00, 0x00, 0x00, 0x10, 0x04, 0x00, 0x00, 0x00, 0x10, 0x08, 
	0x10, 0x00, 0x10, 0x00, 0x80, 0x00, 0x10, 0x00, 0x80, 0x00, 
	0x00, 0x00, 0x00, 0x00, 0x00, 0x00, 0x00, 0x00, 0x01, 0x01, 
	0x02, 0x00, 0x00, 0x00, 0x00, 0x10, 0x00, 0x00, 0x00, 0x00, 
	0x00, 0x00, 0x00, 0x00, 0x00, 0x01, 0x00, 0x10, 0x01, 0x00, 
	0x00, 0x00, 0x10, 0x08, 0x10, 0x00, 0x10, 0x00, 0x80, 0x00, 
	0x10, 0x00, 0x40, 0x00, 0x00, 0x00, 0x12, 0x00, 0x00, 0x00, 
	0x00, 0x00, 0x01, 0x03, 0x02, 0x00, 0x00, 0x01, 0x00, 0x10, 
	0x7e, 0x1b, 0x00, 0x60, 0x9e, 0x1b, 0x00, 0x60, 0x00, 0x00, 
	0x00, 0x10, 0x08, 0x00, 0x00, 0x00, 0x10, 0x04, 0x10, 0x00, 
	0x10, 0x00, 0x40, 0x00, 0x10, 0x00, 0x40, 0x00, 0x00, 0x00, 
	0x00, 0x00, 0x00, 0x00, 0x00, 0x00, 0x01, 0x01, 0x02, 0x00, 
	0x00, 0x00, 0x00, 0x10, 0x00, 0x00, 0x00, 0x00, 0x00, 0x00, 
	0x00, 0x00, 0x80, 0x00, 0x00, 0x10, 0x10, 0x00, 0x00, 0x00, 
	0x40, 0x01, 0x10, 0x00, 0x40, 0x00, 0x40, 0x00, 0x40, 0x00, 
	0x40, 0x00, 0x00, 0x00, 0x00, 0x00, 0x00, 0x00, 0x00, 0x00, 
	0x41, 0x01, 0x02, 0x00, 0x80, 0x00, 0x00, 0x10, 0x3e, 0x1d, 
	0x00, 0x60, 0x00, 0x01, 0x00, 0x10, 0x00, 0x00, 0x00, 0x00, 
	0xbe, 0x1b, 0x00, 0x60, 0x20, 0x00, 0x10, 0x00, 0x20, 0x10, 
	0x01, 0x01, 0x04, 0x00, 0x01, 0x00, 0x13, 0x11, 0x00, 0x01, 
	0x11, 0x00, 0x00, 0x11, 0x04, 0x00, 0x01, 0x00, 0x00, 0x00, 
	0x00, 0x00, 0x05, 0xb7, 0x13, 0x1b, 0x00, 0x0c, 0x00, 0x80, 
	0x01, 0x03, 0x02, 0x00, 0x00, 0x01, 0x00, 0x10, 0x38, 0x23, 
	0x00, 0x60, 0x00, 0x00, 0x00, 0x00, 0x00, 0x00, 0x00, 0x10, 
	0x04, 0x00, 0x00, 0x00, 0x20, 0x04, 0x10, 0x00, 0x20, 0x00, 
	0x80, 0x00, 0x20, 0x00, 0x80, 0x00, 0x00, 0x00, 0x00, 0x00, 
	0x00, 0x00, 0x00, 0x00, 0x01, 0x01, 0x02, 0x00, 0x00, 0x00, 
	0x00, 0x10, 0x00, 0x00, 0x00, 0x00, 0x00, 0x00, 0x00, 0x00, 
	0x00, 0x01, 0x00, 0x10, 0x01, 0x00, 0x00, 0x00, 0x20, 0x04, 
	0x10, 0x00, 0x20, 0x00, 0x80, 0x00, 0x20, 0x00, 0x40, 0x00, 
	0x00, 0x00, 0x12, 0x00, 0x00, 0x00, 0x00, 0x00, 0x01, 0x03, 
	0x02, 0x00, 0x00, 0x01, 0x00, 0x10, 0x78, 0x23, 0x00, 0x60, 
	0xb8, 0x23, 0x00, 0x60, 0x00, 0x00, 0x00, 0x10, 0x08, 0x00, 
	0x00, 0x00, 0x20, 0x02, 0x10, 0x00, 0x20, 0x00, 0x40, 0x00, 
	0x20, 0x00, 0x40, 0x00, 0x00, 0x00, 0x00, 0x00, 0x00, 0x00, 
	0x00, 0x00, 0x01, 0x01, 0x02, 0x00, 0x00, 0x00, 0x00, 0x10, 
	0x00, 0x00, 0x00, 0x00, 0x00, 0x00, 0x00, 0x00, 0x80, 0x00, 
	0x00, 0x10, 0x10, 0x00, 0x00, 0x00, 0x40, 0x01, 0x10, 0x00, 
	0x40, 0x00, 0x40, 0x00, 0x40, 0x00, 0x40, 0x00, 0x00, 0x00, 
	0x00, 0x00, 0x00, 0x00, 0x00, 0x00, 0x41, 0x01, 0x02, 0x00, 
	0x80, 0x00, 0x00, 0x10, 0xf8, 0x24, 0x00, 0x60, 0x00, 0x01, 
	0x00, 0x10, 0x00, 0x00, 0x00, 0x00, 0xf8, 0x23, 0x00, 0x60, 
	0x40, 0x00, 0x20, 0x00, 0x20, 0x20, 0x02, 0x01, 0x02, 0x00, 
	0x01, 0x00, 0x11, 0x11, 0x00, 0x01, 0x00, 0x00, 0x00, 0x11, 
	0x02, 0x00, 0x01, 0x00, 0x00, 0x00, 0x00, 0x00, 0x4b, 0xb8, 
	0x1a, 0x1c, 0x00, 0x08, 0x00, 0x80, 0x01, 0x03, 0x02, 0x00, 
	0x00, 0x01, 0x00, 0x10, 0xe8, 0x2c, 0x00, 0x60, 0x00, 0x00, 
	0x00, 0x00, 0x00, 0x00, 0x00, 0x10, 0x04, 0x00, 0x00, 0x00, 
	0x40, 0x02, 0x10, 0x00, 0x40, 0x00, 0x80, 0x00, 0x40, 0x00, 
	0x80, 0x00, 0x00, 0x00, 0x00, 0x00, 0x00, 0x00, 0x00, 0x00, 
	0x01, 0x01, 0x02, 0x00, 0x00, 0x00, 0x00, 0x10, 0x00, 0x00, 
	0x00, 0x00, 0x00, 0x00, 0x00, 0x00, 0x00, 0x01, 0x00, 0x10, 
	0x01, 0x00, 0x00, 0x00, 0x40, 0x02, 0x10, 0x00, 0x40, 0x00, 
	0x80, 0x00, 0x40, 0x00, 0x40, 0x00, 0x00, 0x00, 0x12, 0x00, 
	0x00, 0x00, 0x00, 0x00, 0x01, 0x03, 0x02, 0x00, 0x00, 0x01, 
	0x00, 0x10, 0x68, 0x2d, 0x00, 0x60, 0xe8, 0x2d, 0x00, 0x60, 
	0x00, 0x00, 0x00, 0x10, 0x08, 0x00, 0x00, 0x00, 0x40, 0x01, 
	0x10, 0x00, 0x40, 0x00, 0x40, 0x00, 0x40, 0x00, 0x40, 0x00, 
	0x00, 0x00, 0x00, 0x00, 0x00, 0x00, 0x00, 0x00, 0x01, 0x01, 
	0x02, 0x00, 0x00, 0x00, 0x00, 0x10, 0x00, 0x00, 0x00, 0x00, 
	0x00, 0x00, 0x00, 0x00, 0x80, 0x00, 0x00, 0x10, 0x10, 0x00, 
	0x00, 0x00, 0x40, 0x01, 0x10, 0x00, 0x40, 0x00, 0x40, 0x00, 
	0x40, 0x00, 0x40, 0x00, 0x00, 0x00, 0x00, 0x00, 0x00, 0x00, 
	0x00, 0x00, 0x01, 0x01, 0x02, 0x00, 0x80, 0x00, 0x00, 0x10, 
	0x00, 0x00, 0x00, 0x00, 0x00, 0x00, 0x00, 0x00, 0x00, 0x01, 
	0x00, 0x10, 0x02, 0x00, 0x00, 0x00, 0x40, 0x01, 0x10, 0x00, 
	0x40, 0x00, 0x40, 0x00, 0x80, 0x00, 0x80, 0x00, 0x00, 0x00, 
	0x00, 0x00, 0x00, 0x00, 0x00, 0x00, 0x01, 0x01, 0x02, 0x00, 
	0x00, 0x02, 0x00, 0x30, 0x00, 0x00, 0x00, 0x00, 0x00, 0x00, 
	0x00, 0x00, 0x80, 0x01, 0x00, 0x10, 0x02, 0x00, 0x00, 0x00, 
	0x40, 0x01, 0x10, 0x00, 0x40, 0x00, 0x40, 0x00, 0x80, 0x00, 
	0x80, 0x00, 0x00, 0x00, 0x00, 0x00, 0x00, 0x00, 0x00, 0x00, 
	0x40, 0x01, 0x02, 0x00, 0x00, 0x01, 0x00, 0x10, 0x82, 0x36, 
	0x00, 0x60, 0x00, 0x02, 0x00, 0x10, 0x00, 0x00, 0x00, 0x00, 
	0x82, 0x2e, 0x00, 0x60, 0x80, 0x00, 0x80, 0x00, 0x20, 0x20, 
	0x04, 0x04, 0x00, 0x00, 0x00, 0x01, 0x00, 0x00, 0x00, 0x00, 
	0xe6, 0xba, 0xae, 0x1f, 0x00, 0x40, 0x00, 0x80, 0x01, 0x03, 
	0x02, 0x00, 0x00, 0x02, 0x00, 0x10, 0x4c, 0x75, 0x00, 0x60, 
	0x00, 0x00, 0x00, 0x00, 0x00, 0x01, 0x00, 0x10, 0x04, 0x00, 
	0x00, 0x00, 0x40, 0x01, 0x10, 0x00, 0x80, 0x00, 0x80, 0x00, 
	0x80, 0x00, 0x80, 0x00, 0x00, 0x00, 0x00, 0x00, 0x00, 0x00, 
	0x00, 0x00, 0x01, 0x00, 0x02, 0x00, 0x80, 0x02, 0x00, 0x10, 
	0xcc, 0x75, 0x00, 0x60, 0x00, 0x00, 0x00, 0x00, 0x80, 0x01, 
	0x00, 0x10, 0x04, 0x00, 0x00, 0x00, 0x40, 0x01, 0x10, 0x00, 
	0x80, 0x00, 0x80, 0x00, 0x80, 0x00, 0x80, 0x00, 0x00, 0x00, 
	0x00, 0x00, 0x00, 0x00, 0x00, 0x00, 0x01, 0x01, 0x02, 0x00, 
	0x00, 0x01, 0x00, 0x10, 0x00, 0x00, 0x00, 0x00, 0x00, 0x00, 
	0x00, 0x00, 0x00, 0x02, 0x00, 0x10, 0x20, 0x00, 0x00, 0x00, 
	0x40, 0x02, 0x10, 0x00, 0x40, 0x00, 0x80, 0x00, 0x40, 0x00, 
	0x80, 0x00, 0x00, 0x00, 0x00, 0x00, 0x00, 0x00, 0x00, 0x00, 
	0x01, 0x03, 0x02, 0x00, 0x00, 0x02, 0x00, 0x10, 0x00, 0x02, 
	0x00, 0x30, 0x00, 0x00, 0x00, 0x00, 0x00, 0x00, 0x00, 0x10, 
	0x05, 0x10, 0x00, 0x00, 0x40, 0x01, 0x10, 0x00, 0x40, 0x00, 
	0x40, 0x00, 0x40, 0x00, 0x40, 0x00, 0x00, 0x00, 0x00, 0x00, 
	0x00, 0x00, 0x00, 0x00, 0x01, 0x01, 0x02, 0x00, 0x80, 0x00, 
	0x00, 0x10, 0x00, 0x00, 0x00, 0x00, 0x00, 0x00, 0x00, 0x00, 
	0x00, 0x01, 0x00, 0x10, 0x02, 0x00, 0x00, 0x00, 0x40, 0x01, 
	0x10, 0x00, 0x40, 0x00, 0x40, 0x00, 0x80, 0x00, 0x80, 0x00, 
	0x00, 0x00, 0x00, 0x00, 0x00, 0x00, 0x00, 0x00, 0x01, 0x01, 
	0x02, 0x00, 0x00, 0x00, 0x00, 0x10, 0x00, 0x00, 0x00, 0x00, 
	0x00, 0x00, 0x00, 0x00, 0x80, 0x01, 0x00, 0x10, 0x02, 0x00, 
	0x00, 0x00, 0x40, 0x01, 0x10, 0x00, 0x40, 0x00, 0x40, 0x00, 
	0x80, 0x00, 0x80, 0x00, 0x00, 0x00, 0x00, 0x00, 0x00, 0x00, 
	0x00, 0x00, 0x40, 0x01, 0x02, 0x00, 0x00, 0x01, 0x00, 0x10, 
	0x50, 0x7a, 0x00, 0x60, 0x00, 0x00, 0x00, 0x10, 0x00, 0x00, 
	0x00, 0x00, 0x50, 0x76, 0x00, 0x60, 0x40, 0x00, 0x80, 0x00, 
	0x20, 0x20, 0x02, 0x04, 0x00, 0x00, 0x00, 0x01, 0x00, 0x00, 
	0x00, 0x00, 0xb4, 0xb9, 0x1b, 0x1d, 0x00, 0x20, 0x00, 0x80, 
	0x01, 0x03, 0x02, 0x00, 0x00, 0x00, 0x00, 0x10, 0x00, 0x9a, 
	0x00, 0x60, 0x00, 0x00, 0x00, 0x00, 0x80, 0x00, 0x00, 0x10, 
	0x04, 0x00, 0x00, 0x00, 0x40, 0x01, 0x10, 0x00, 0x40, 0x00, 
	0x40, 0x00, 0x40, 0x00, 0x40, 0x00, 0x00, 0x00, 0x00, 0x00, 
	0x00, 0x00, 0x00, 0x00, 0x01, 0x01, 0x02, 0x00, 0x80, 0x00, 
	0x00, 0x10, 0x00, 0x00, 0x00, 0x00, 0x00, 0x00, 0x00, 0x00, 
	0x00, 0x00, 0x00, 0x10, 0x30, 0x00, 0x00, 0x00, 0x40, 0x01, 
	0x10, 0x00, 0x40, 0x00, 0x40, 0x00, 0x40, 0x00, 0x40, 0x00, 
	0x00, 0x00, 0x00, 0x00, 0x00, 0x00, 0x00, 0x00, 0x01, 0x03, 
	0x02, 0x00, 0x80, 0x02, 0x00, 0x10, 0x00, 0x02, 0x00, 0x30, 
	0x00, 0x00, 0x00, 0x00, 0x80, 0x00, 0x00, 0x10, 0x05, 0x10, 
	0x00, 0x00, 0x40, 0x01, 0x10, 0x00, 0x40, 0x00, 0x40, 0x00, 
	0x40, 0x00, 0x40, 0x00, 0x00, 0x00, 0x00, 0x00, 0x00, 0x00, 
	0x00, 0x00, 0x01, 0x03, 0x02, 0x00, 0x00, 0x00, 0x00, 0x80, 
	0x80, 0x02, 0x00, 0x10, 0x00, 0x00, 0x00, 0x00, 0x00, 0x01, 
	0x00, 0x10, 0x05, 0x08, 0x00, 0x00, 0x40, 0x01, 0x10, 0x00, 
	0x40, 0x00, 0x40, 0x00, 0x40, 0x00, 0x40, 0x00, 0x00, 0x3c, 
	0x00, 0x00, 0x00, 0x00, 0x00, 0x00, 0x01, 0x03, 0x02, 0x00, 
	0x00, 0x01, 0x00, 0x10, 0x00, 0x00, 0x00, 0x10, 0x00, 0x00, 
	0x00, 0x00, 0x80, 0x01, 0x00, 0x10, 0x05, 0x10, 0x00, 0x00, 
	0x40, 0x01, 0x10, 0x00, 0x40, 0x00, 0x40, 0x00, 0x40, 0x00, 
	0x40, 0x00, 0x00, 0x00, 0x00, 0x00, 0x00, 0x00, 0x00, 0x00, 
	0x01, 0x03, 0x02, 0x00, 0x80, 0x00, 0x00, 0x10, 0x80, 0x01, 
	0x00, 0x10, 0x00, 0x00, 0x00, 0x00, 0x00, 0x01, 0x00, 0x10, 
	0x05, 0x00, 0x00, 0x00, 0x40, 0x01, 0x10, 0x00, 0x40, 0x00, 
	0x40, 0x00, 0x40, 0x00, 0x40, 0x00, 0x00, 0x00, 0x00, 0x00, 
	0x00, 0x00, 0x00, 0x00, 0x40, 0x01, 0x02, 0x00, 0x00, 0x01, 
	0x00, 0x10, 0x82, 0x9b, 0x00, 0x60, 0x00, 0x00, 0x00, 0x10, 
	0x00, 0x00, 0x00, 0x00, 0x82, 0x9a, 0x00, 0x60, 0x02, 0x00, 
	0x40, 0x00, 0x02, 0x20, 0x01, 0x02, 0x00, 0x00, 0x00, 0x01, 
	0x00, 0x00, 0x00, 0x00, 0x72, 0xb8, 0xf3, 0x1c, 0x00, 0x08, 
	0x00, 0x80, 0x01, 0x03, 0x02, 0x00, 0x00, 0x00, 0x00, 0x10, 
	0x02, 0x9c, 0x00, 0x60, 0x00, 0x00, 0x00, 0x00, 0x04, 0x00, 
	0x00, 0x10, 0x04, 0x00, 0x00, 0x00, 0x02, 0x01, 0x10, 0x00, 
	0x02, 0x00, 0x02, 0x00, 0x02, 0x00, 0x02, 0x00, 0x00, 0x00, 
	0x00, 0x00, 0x00, 0x00, 0x00, 0x00, 0x01, 0x01, 0x02, 0x00, 
	0x04, 0x00, 0x00, 0x10, 0x00, 0x00, 0x00, 0x00, 0x00, 0x00, 
	0x00, 0x00, 0x00, 0x00, 0x00, 0x10, 0x20, 0x00, 0x00, 0x00, 
	0x02, 0x01, 0x10, 0x00, 0x02, 0x00, 0x02, 0x00, 0x02, 0x00, 
	0x02, 0x00, 0x00, 0x00, 0x00, 0x00, 0x00, 0x00, 0x00, 0x00, 
	0x01, 0x01, 0x02, 0x00, 0x00, 0x00, 0x00, 0x10, 0x00, 0x00, 
	0x00, 0x00, 0x00, 0x00, 0x00, 0x00, 0x80, 0x00, 0x00, 0x40, 
	0x07, 0x00, 0x01, 0x00, 0x02, 0x01, 0x10, 0x00, 0x02, 0x00, 
	0x02, 0x00, 0x02, 0x00, 0x02, 0x00, 0x00, 0x00, 0x00, 0x00, 
	0x00, 0x00, 0x00, 0x00, 0x01, 0x01, 0x00, 0x00, 0x00, 0x00, 
	0x00, 0x70, 0x00, 0x01, 0x00, 0x10, 0x00, 0x00, 0x00, 0x00, 
	0x00, 0x00, 0x00, 0x00, 0x00, 0x00, 0x00, 0x40, 0x02, 0x00, 
	0x00, 0x00, 0x40, 0x01, 0x10, 0x00, 0x40, 0x00, 0x40, 0x00, 
	0x40, 0x00, 0x40, 0x00, 0x00, 0x00, 0x00, 0x00, 0x00, 0x00, 
	0x00, 0x00, 
};
const unsigned char weight_content[39946] __attribute__ ((aligned(4))) DRAM0_NC_NPU_WEIGHT_ATTR = {
	0x00, 0x00, 0x00, 0x00, 0x00, 0x00, 0x00, 0x00, 0x00, 0x00, 
	0x00, 0x00, 0x00, 0x58, 0x00, 0x00, 0x00, 0x3c, 0x00, 0x3c, 
	0x00, 0x3c, 0x00, 0x3c, 0xc0, 0x00, 0x00, 0x00, 0x00, 0x00, 
	0x00, 0x00, 0x00, 0x00, 0x00, 0x00, 0x00, 0x00, 0x00, 0x00, 
	0x00, 0x00, 0x00, 0x00, 0x00, 0x00, 0x00, 0x00, 0x00, 0x00, 
	0x00, 0x00, 0x00, 0x00, 0x00, 0x00, 0x00, 0x00, 0x00, 0x00, 
	0x00, 0x00, 0x00, 0x00, 0x00, 0x00, 0x00, 0x00, 0x00, 0x00, 
	0x00, 0x00, 0x00, 0x00, 0x00, 0x00, 0x00, 0x00, 0x00, 0x00, 
	0x00, 0x00, 0x00, 0x00, 0x00, 0x00, 0x00, 0x00, 0x00, 0x00, 
	0x00, 0x00, 0x00, 0x00, 0x00, 0x00, 0x00, 0x00, 0x00, 0x00, 
	0x00, 0x00, 0x00, 0x00, 0x00, 0x00, 0x00, 0x00, 0x00, 0x00, 
	0x00, 0x00, 0x00, 0x00, 0x00, 0x00, 0x00, 0x00, 0x00, 0x00, 
	0x00, 0x00, 0x00, 0x00, 0x00, 0x00, 0x00, 0x00, 0x00, 0x00, 
	0x00, 0x00, 0x00, 0x00, 0x00, 0x00, 0x00, 0x00, 0x00, 0x00, 
	0x00, 0x00, 0x00, 0x00, 0x00, 0x00, 0x00, 0x00, 0x00, 0x00, 
	0x00, 0x00, 0xc0, 0x00, 0x00, 0x00, 0x00, 0x00, 0x00, 0x00, 
	0x00, 0x00, 0x00, 0x00, 0x00, 0x00, 0x00, 0x00, 0x00, 0x00, 
	0x00, 0x00, 0x00, 0x00, 0x00, 0x00, 0x00, 0x00, 0x00, 0x00, 
	0x00, 0x00, 0x00, 0x00, 0x00, 0x00, 0x00, 0x00, 0x00, 0x00, 
	0x00, 0x00, 0x00, 0x00, 0x00, 0x00, 0x00, 0x00, 0x00, 0x00, 
	0x00, 0x00, 0x00, 0x00, 0x00, 0x00, 0x00, 0x00, 0x00, 0x00, 
	0x00, 0x00, 0x00, 0x00, 0x00, 0x00, 0x00, 0x00, 0x00, 0x00, 
	0x00, 0x00, 0x00, 0x00, 0x00, 0x00, 0x00, 0x00, 0x00, 0x00, 
	0x00, 0x00, 0x00, 0x00, 0x00, 0x00, 0x00, 0x00, 0x00, 0x00, 
	0x00, 0x00, 0x00, 0x00, 0x00, 0x00, 0x00, 0x00, 0x00, 0x00, 
	0x00, 0x00, 0x00, 0x00, 0x00, 0x00, 0x00, 0x00, 0x00, 0x00, 
	0x00, 0x00, 0x00, 0x00, 0x00, 0x00, 0x00, 0x00, 0x00, 0x00, 
	0x00, 0x00, 0x00, 0x00, 0x00, 0x00, 0x00, 0x00, 0x00, 0x00, 
	0xc0, 0x00, 0x00, 0x00, 0x00, 0x00, 0x00, 0x00, 0x00, 0x00, 
	0x00, 0x00, 0x00, 0x00, 0x00, 0x00, 0x00, 0x00, 0x00, 0x00, 
	0x00, 0x00, 0x00, 0x00, 0x00, 0x00, 0x00, 0x00, 0x00, 0x00, 
	0x00, 0x00, 0x00, 0x00, 0x00, 0x00, 0x00, 0x00, 0x00, 0x00, 
	0x00, 0x00, 0x00, 0x00, 0x00, 0x00, 0x00, 0x00, 0x00, 0x00, 
	0x00, 0x00, 0x00, 0x00, 0x00, 0x00, 0x00, 0x00, 0x00, 0x00, 
	0x00, 0x00, 0x00, 0x00, 0x00, 0x00, 0x00, 0x00, 0x00, 0x00, 
	0x00, 0x00, 0x00, 0x00, 0x00, 0x00, 0x00, 0x00, 0x00, 0x00, 
	0x00, 0x00, 0x00, 0x00, 0x00, 0x00, 0x00, 0x00, 0x00, 0x00, 
	0x00, 0x00, 0x00, 0x00, 0x00, 0x00, 0x00, 0x00, 0x00, 0x00, 
	0x00, 0x00, 0x00, 0x00, 0x00, 0x00, 0x00, 0x00, 0x00, 0x00, 
	0x00, 0x00, 0x00, 0x00, 0x00, 0x00, 0x00, 0x00, 0x00, 0x00, 
	0x00, 0x00, 0x00, 0x00, 0x00, 0x00, 0x00, 0x00, 0xc0, 0x00, 
	0x00, 0x00, 0x00, 0x00, 0x00, 0x00, 0x00, 0x00, 0x00, 0x00, 
	0x00, 0x00, 0x00, 0x00, 0x00, 0x00, 0x00, 0x00, 0x00, 0x00, 
	0x00, 0x00, 0x00, 0x00, 0x00, 0x00, 0x00, 0x00, 0x00, 0x00, 
	0x00, 0x00, 0x00, 0x00, 0x00, 0x00, 0x00, 0x00, 0x00, 0x00, 
	0x00, 0x00, 0x00, 0x00, 0x00, 0x00, 0x00, 0x00, 0x00, 0x00, 
	0x00, 0x00, 0x00, 0x00, 0x00, 0x00, 0x00, 0x00, 0x00, 0x00, 
	0x00, 0x00, 0x00, 0x00, 0x00, 0x00, 0x00, 0x00, 0x00, 0x00, 
	0x00, 0x00, 0x00, 0x00, 0x00, 0x00, 0x00, 0x00, 0x00, 0x00, 
	0x00, 0x00, 0x00, 0x00, 0x00, 0x00, 0x00, 0x00, 0x00, 0x00, 
	0x00, 0x00, 0x00, 0x00, 0x00, 0x00, 0x00, 0x00, 0x00, 0x00, 
	0x00, 0x00, 0x00, 0x00, 0x00, 0x00, 0x00, 0x00, 0x00, 0x00, 
	0x00, 0x00, 0x00, 0x00, 0x00, 0x00, 0x00, 0x00, 0x00, 0x00, 
	0x00, 0x00, 0x00, 0x00, 0x00, 0x00, 0xc0, 0x00, 0x00, 0x00, 
	0x00, 0x00, 0x00, 0x00, 0x00, 0x00, 0x00, 0x00, 0x00, 0x00, 
	0x00, 0x00, 0x00, 0x00, 0x00, 0x00, 0x00, 0x00, 0x00, 0x00, 
	0x00, 0x00, 0x00, 0x00, 0x00, 0x00, 0x00, 0x00, 0x00, 0x00, 
	0x00, 0x00, 0x00, 0x00, 0x00, 0x00, 0x00, 0x00, 0x00, 0x00, 
	0x00, 0x00, 0x00, 0x00, 0x00, 0x00, 0x00, 0x00, 0x00, 0x00, 
	0x00, 0x00, 0x00, 0x00, 0x00, 0x00, 0x00, 0x00, 0x00, 0x00, 
	0x00, 0x00, 0x00, 0x00, 0x00, 0x00, 0x00, 0x00, 0x00, 0x00, 
	0x00, 0x00, 0x00, 0x00, 0x00, 0x00, 0x00, 0x00, 0x00, 0x00, 
	0x00, 0x00, 0x00, 0x00, 0x00, 0x00, 0x00, 0x00, 0x00, 0x00, 
	0x00, 0x00, 0x00, 0x00, 0x00, 0x00, 0x00, 0x00, 0x00, 0x00, 
	0x00, 0x00, 0x00, 0x00, 0x00, 0x00, 0x00, 0x00, 0x00, 0x00, 
	0x00, 0x00, 0x00, 0x00, 0x00, 0x00, 0x00, 0x00, 0x00, 0x00, 
	0x00, 0x00, 0x00, 0x00, 0xc0, 0x00, 0x00, 0x00, 0x00, 0x00, 
	0x00, 0x00, 0x00, 0x00, 0x00, 0x00, 0x00, 0x00, 0x00, 0x00, 
	0x00, 0x00, 0x00, 0x00, 0x00, 0x00, 0x00, 0x00, 0x00, 0x00, 
	0x00, 0x00, 0x00, 0x00, 0x00, 0x00, 0x00, 0x00, 0x00, 0x00, 
	0x00, 0x00, 0x00, 0x00, 0x00, 0x00, 0x00, 0x00, 0x00, 0x00, 
	0x00, 0x00, 0x00, 0x00, 0x00, 0x00, 0x00, 0x00, 0x00, 0x00, 
	0x00, 0x00, 0x00, 0x00, 0x00, 0x00, 0x00, 0x00, 0x00, 0x00, 
	0x00, 0x00, 0x00, 0x00, 0x00, 0x00, 0x00, 0x00, 0x00, 0x00, 
	0x00, 0x00, 0x00, 0x00, 0x00, 0x00, 0x00, 0x00, 0x00, 0x00, 
	0x00, 0x00, 0x00, 0x00, 0x00, 0x00, 0x00, 0x00, 0x00, 0x00, 
	0x00, 0x00, 0x00, 0x00, 0x00, 0x00, 0x00, 0x00, 0x00, 0x00, 
	0x00, 0x00, 0x00, 0x00, 0x00, 0x00, 0x00, 0x00, 0x00, 0x00, 
	0x00, 0x00, 0x00, 0x00, 0x00, 0x00, 0x00, 0x00, 0x00, 0x00, 
	0x00, 0x00, 0xc0, 0x00, 0x00, 0x00, 0x00, 0x00, 0x00, 0x00, 
	0x00, 0x00, 0x00, 0x00, 0x00, 0x00, 0x00, 0x00, 0x00, 0x00, 
	0x00, 0x00, 0x00, 0x00, 0x00, 0x00, 0x00, 0x00, 0x00, 0x00, 
	0x00, 0x00, 0x00, 0x00, 0x00, 0x00, 0x00, 0x00, 0x00, 0x00, 
	0x00, 0x00, 0x00, 0x00, 0x00, 0x00, 0x00, 0x00, 0x00, 0x00, 
	0x00, 0x00, 0x00, 0x00, 0x00, 0x00, 0x00, 0x00, 0x00, 0x00, 
	0x00, 0x00, 0x00, 0x00, 0x00, 0x00, 0x00, 0x00, 0x00, 0x00, 
	0x00, 0x00, 0x00, 0x00, 0x00, 0x00, 0x00, 0x00, 0x00, 0x00, 
	0x00, 0x00, 0x00, 0x00, 0x00, 0x00, 0x00, 0x00, 0x00, 0x00, 
	0x00, 0x00, 0x00, 0x00, 0x00, 0x00, 0x00, 0x00, 0x00, 0x00, 
	0x00, 0x00, 0x00, 0x00, 0x00, 0x00, 0x00, 0x00, 0x00, 0x00, 
	0x00, 0x00, 0x00, 0x00, 0x00, 0x00, 0x00, 0x00, 0x00, 0x00, 
	0x00, 0x00, 0x00, 0x00, 0x00, 0x00, 0x00, 0x00, 0x00, 0x00, 
	0xc0, 0x00, 0x00, 0x00, 0x00, 0x00, 0x00, 0x00, 0x00, 0x00, 
	0x00, 0x00, 0x00, 0x00, 0x00, 0x00, 0x00, 0x00, 0x00, 0x00, 
	0x00, 0x00, 0x00, 0x00, 0x00, 0x00, 0x00, 0x00, 0x00, 0x00, 
	0x00, 0x00, 0x00, 0x00, 0x00, 0x00, 0x00, 0x00, 0x00, 0x00, 
	0x00, 0x00, 0x00, 0x00, 0x00, 0x00, 0x00, 0x00, 0x00, 0x00, 
	0x00, 0x00, 0x00, 0x00, 0x00, 0x00, 0x00, 0x00, 0x00, 0x00, 
	0x00, 0x00, 0x00, 0x00, 0x00, 0x00, 0x00, 0x00, 0x00, 0x00, 
	0x00, 0x00, 0x00, 0x00, 0x00, 0x00, 0x00, 0x00, 0x00, 0x00, 
	0x00, 0x00, 0x00, 0x00, 0x00, 0x00, 0x00, 0x00, 0x00, 0x00, 
	0x00, 0x00, 0x00, 0x00, 0x00, 0x00, 0x00, 0x00, 0x00, 0x00, 
	0x00, 0x00, 0x00, 0x00, 0x00, 0x00, 0x00, 0x00, 0x00, 0x00, 
	0x00, 0x00, 0x00, 0x00, 0x00, 0x00, 0x00, 0x00, 0x00, 0x00, 
	0x00, 0x00, 0x00, 0x00, 0x00, 0x00, 0x00, 0x00, 0xc0, 0x00, 
	0x00, 0x00, 0x00, 0x00, 0x00, 0x00, 0x00, 0x00, 0x00, 0x00, 
	0x00, 0x00, 0x00, 0x00, 0x00, 0x00, 0x00, 0x00, 0x00, 0x00, 
	0x00, 0x00, 0x00, 0x00, 0x00, 0x00, 0x00, 0x00, 0x00, 0x00, 
	0x00, 0x00, 0x00, 0x00, 0x00, 0x00, 0x00, 0x00, 0x00, 0x00, 
	0x00, 0x00, 0x00, 0x00, 0x00, 0x00, 0x00, 0x00, 0x00, 0x00, 
	0x00, 0x00, 0x00, 0x00, 0x00, 0x00, 0x00, 0x00, 0x00, 0x00, 
	0x00, 0x00, 0x00, 0x00, 0x00, 0x00, 0x00, 0x00, 0x00, 0x00, 
	0x00, 0x00, 0x00, 0x00, 0x00, 0x00, 0x00, 0x00, 0x00, 0x00, 
	0x00, 0x00, 0x00, 0x00, 0x00, 0x00, 0x00, 0x00, 0x00, 0x00, 
	0x00, 0x00, 0x00, 0x00, 0x00, 0x00, 0x00, 0x00, 0x00, 0x00, 
	0x00, 0x00, 0x00, 0x00, 0x00, 0x00, 0x00, 0x00, 0x00, 0x00, 
	0x00, 0x00, 0x00, 0x00, 0x00, 0x00, 0x00, 0x00, 0x00, 0x00, 
	0x00, 0x00, 0x00, 0x00, 0x00, 0x00, 0xc0, 0x00, 0x00, 0x00, 
	0x00, 0x00, 0x00, 0x00, 0x00, 0x00, 0x00, 0x00, 0x00, 0x00, 
	0x00, 0x00, 0x00, 0x00, 0x00, 0x00, 0x00, 0x00, 0x00, 0x00, 
	0x00, 0x00, 0x00, 0x00, 0x00, 0x00, 0x00, 0x00, 0x00, 0x00, 
	0x00, 0x00, 0x00, 0x00, 0x00, 0x00, 0x00, 0x00, 0x00, 0x00, 
	0x00, 0x00, 0x00, 0x00, 0x00, 0x00, 0x00, 0x00, 0x00, 0x00, 
	0x00, 0x00, 0x00, 0x00, 0x00, 0x00, 0x00, 0x00, 0x00, 0x00, 
	0x00, 0x00, 0x00, 0x00, 0x00, 0x00, 0x00, 0x00, 0x00, 0x00, 
	0x00, 0x00, 0x00, 0x00, 0x00, 0x00, 0x00, 0x00, 0x00, 0x00, 
	0x00, 0x00, 0x00, 0x00, 0x00, 0x00, 0x00, 0x00, 0x00, 0x00, 
	0x00, 0x00, 0x00, 0x00, 0x00, 0x00, 0x00, 0x00, 0x00, 0x00, 
	0x00, 0x00, 0x00, 0x00, 0x00, 0x00, 0x00, 0x00, 0x00, 0x00, 
	0x00, 0x00, 0x00, 0x00, 0x00, 0x00, 0x00, 0x00, 0x00, 0x00, 
	0x00, 0x00, 0x00, 0x00, 0xc0, 0x00, 0x00, 0x00, 0x00, 0x00, 
	0x00, 0x00, 0x00, 0x00, 0x00, 0x00, 0x00, 0x00, 0x00, 0x00, 
	0x00, 0x00, 0x00, 0x00, 0x00, 0x00, 0x00, 0x00, 0x00, 0x00, 
	0x00, 0x00, 0x00, 0x00, 0x00, 0x00, 0x00, 0x00, 0x00, 0x00, 
	0x00, 0x00, 0x00, 0x00, 0x00, 0x00, 0x00, 0x00, 0x00, 0x00, 
	0x00, 0x00, 0x00, 0x00, 0x00, 0x00, 0x00, 0x00, 0x00, 0x00, 
	0x00, 0x00, 0x00, 0x00, 0x00, 0x00, 0x00, 0x00, 0x00, 0x00, 
	0x00, 0x00, 0x00, 0x00, 0x00, 0x00, 0x00, 0x00, 0x00, 0x00, 
	0x00, 0x00, 0x00, 0x00, 0x00, 0x00, 0x00, 0x00, 0x00, 0x00, 
	0x00, 0x00, 0x00, 0x00, 0x00, 0x00, 0x00, 0x00, 0x00, 0x00, 
	0x00, 0x00, 0x00, 0x00, 0x00, 0x00, 0x00, 0x00, 0x00, 0x00, 
	0x00, 0x00, 0x00, 0x00, 0x00, 0x00, 0x00, 0x00, 0x00, 0x00, 
	0x00, 0x00, 0x00, 0x00, 0x00, 0x00, 0x00, 0x00, 0x00, 0x00, 
	0x00, 0x00, 0xc0, 0x00, 0x00, 0x00, 0x00, 0x00, 0x00, 0x00, 
	0x00, 0x00, 0x00, 0x00, 0x00, 0x00, 0x00, 0x00, 0x00, 0x00, 
	0x00, 0x00, 0x00, 0x00, 0x00, 0x00, 0x00, 0x00, 0x00, 0x00, 
	0x00, 0x00, 0x00, 0x00, 0x00, 0x00, 0x00, 0x00, 0x00, 0x00, 
	0x00, 0x00, 0x00, 0x00, 0x00, 0x00, 0x00, 0x00, 0x00, 0x00, 
	0x00, 0x00, 0x00, 0x00, 0x00, 0x00, 0x00, 0x00, 0x00, 0x00, 
	0x00, 0x00, 0x00, 0x00, 0x00, 0x00, 0x00, 0x00, 0x00, 0x00, 
	0x00, 0x00, 0x00, 0x00, 0x00, 0x00, 0x00, 0x00, 0x00, 0x00, 
	0x00, 0x00, 0x00, 0x00, 0x00, 0x00, 0x00, 0x00, 0x00, 0x00, 
	0x00, 0x00, 0x00, 0x00, 0x00, 0x00, 0x00, 0x00, 0x00, 0x00, 
	0x00, 0x00, 0x00, 0x00, 0x00, 0x00, 0x00, 0x00, 0x00, 0x00, 
	0x00, 0x00, 0x00, 0x00, 0x00, 0x00, 0x00, 0x00, 0x00, 0x00, 
	0x00, 0x00, 0x00, 0x00, 0x00, 0x00, 0x00, 0x00, 0x00, 0x00, 
	0xc0, 0x00, 0x00, 0x00, 0x00, 0x00, 0x00, 0x00, 0x00, 0x00, 
	0x00, 0x00, 0x00, 0x00, 0x00, 0x00, 0x00, 0x00, 0x00, 0x00, 
	0x00, 0x00, 0x00, 0x00, 0x00, 0x00, 0x00, 0x00, 0x00, 0x00, 
	0x00, 0x00, 0x00, 0x00, 0x00, 0x00, 0x00, 0x00, 0x00, 0x00, 
	0x00, 0x00, 0x00, 0x00, 0x00, 0x00, 0x00, 0x00, 0x00, 0x00, 
	0x00, 0x00, 0x00, 0x00, 0x00, 0x00, 0x00, 0x00, 0x00, 0x00, 
	0x00, 0x00, 0x00, 0x00, 0x00, 0x00, 0x00, 0x00, 0x00, 0x00, 
	0x00, 0x00, 0x00, 0x00, 0x00, 0x00, 0x00, 0x00, 0x00, 0x00, 
	0x00, 0x00, 0x00, 0x00, 0x00, 0x00, 0x00, 0x00, 0x00, 0x00, 
	0x00, 0x00, 0x00, 0x00, 0x00, 0x00, 0x00, 0x00, 0x00, 0x00, 
	0x00, 0x00, 0x00, 0x00, 0x00, 0x00, 0x00, 0x00, 0x00, 0x00, 
	0x00, 0x00, 0x00, 0x00, 0x00, 0x00, 0x00, 0x00, 0x00, 0x00, 
	0x00, 0x00, 0x00, 0x00, 0x00, 0x00, 0x00, 0x00, 0xba, 0x4e, 
	0xa2, 0x10, 0xff, 0x6e, 0x53, 0x0d, 0xca, 0x8e, 0xab, 0x43, 
	0x0f, 0xd5, 0x42, 0xa9, 0x43, 0x2f, 0x2a, 0x00, 0x83, 0xc0, 
	0x35, 0xc8, 0x69, 0x89, 0x26, 0xb4, 0x69, 0xaf, 0xda, 0x3f, 
	0xc7, 0x40, 0xe4, 0x38, 0xe2, 0x35, 0xf0, 0x00, 0x00, 0x00, 
	0xf0, 0x00, 0x00, 0x00, 0x00, 0x00, 0x00, 0x00, 0x00, 0x00, 
	0x00, 0x00, 0x00, 0x00, 0x00, 0x00, 0x00, 0x00, 0x00, 0x00, 
	0x00, 0x00, 0x00, 0x00, 0x00, 0x00, 0x00, 0x00, 0x00, 0x00, 
	0x00, 0x00, 0x00, 0x00, 0x00, 0x00, 0x00, 0x00, 0x00, 0x00, 
	0x00, 0x00, 0x00, 0x00, 0x00, 0x00, 0x00, 0x00, 0x00, 0x00, 
	0x00, 0x00, 0x00, 0x00, 0x00, 0x00, 0x00, 0x00, 0x00, 0x00, 
	0x00, 0x00, 0x00, 0x00, 0x00, 0x00, 0x00, 0x00, 0x00, 0x00, 
	0x00, 0x00, 0x00, 0x00, 0x00, 0x00, 0x00, 0x00, 0x00, 0x00, 
	0x00, 0x00, 0x00, 0x00, 0x00, 0x00, 0x00, 0x00, 0x00, 0x00, 
	0x00, 0x00, 0x00, 0x00, 0x00, 0x00, 0x00, 0x00, 0x00, 0x00, 
	0x00, 0x00, 0x00, 0x00, 0x00, 0x00, 0x00, 0x00, 0x00, 0x00, 
	0x00, 0x00, 0x00, 0x00, 0x00, 0x00, 0x00, 0x00, 0x00, 0x00, 
	0x00, 0x00, 0x00, 0x00, 0xf0, 0x00, 0x00, 0x00, 0xf0, 0x00, 
	0x00, 0x00, 0x00, 0x00, 0x00, 0x00, 0x00, 0x00, 0x00, 0x00, 
	0x00, 0x00, 0x00, 0x00, 0x00, 0x00, 0x00, 0x00, 0x00, 0x00, 
	0x00, 0x00, 0x00, 0x00, 0x00, 0x00, 0x00, 0x00, 0x00, 0x00, 
	0x00, 0x00, 0x00, 0x00, 0x00, 0x00, 0x00, 0x00, 0x00, 0x00, 
	0x00, 0x00, 0x00, 0x00, 0x00, 0x00, 0x00, 0x00, 0x00, 0x00, 
	0x00, 0x00, 0x00, 0x00, 0x00, 0x00, 0x00, 0x00, 0x00, 0x00, 
	0x00, 0x00, 0x00, 0x00, 0x00, 0x00, 0x00, 0x00, 0x00, 0x00, 
	0x00, 0x00, 0x00, 0x00, 0x00, 0x00, 0x00, 0x00, 0x00, 0x00, 
	0x00, 0x00, 0x00, 0x00, 0x00, 0x00, 0x00, 0x00, 0x00, 0x00, 
	0x00, 0x00, 0x00, 0x00, 0x00, 0x00, 0x00, 0x00, 0x00, 0x00, 
	0x00, 0x00, 0x00, 0x00, 0x00, 0x00, 0x00, 0x00, 0x00, 0x00, 
	0x00, 0x00, 0x00, 0x00, 0x00, 0x00, 0x00, 0x00, 0x00, 0x00, 
	0x00, 0x00, 0xf0, 0x00, 0x00, 0x00, 0xf0, 0x00, 0x00, 0x00, 
	0x00, 0x00, 0x00, 0x00, 0x00, 0x00, 0x00, 0x00, 0x00, 0x00, 
	0x00, 0x00, 0x00, 0x00, 0x00, 0x00, 0x00, 0x00, 0x00, 0x00, 
	0x00, 0x00, 0x00, 0x00, 0x00, 0x00, 0x00, 0x00, 0x00, 0x00, 
	0x00, 0x00, 0x00, 0x00, 0x00, 0x00, 0x00, 0x00, 0x00, 0x00, 
	0x00, 0x00, 0x00, 0x00, 0x00, 0x00, 0x00, 0x00, 0x00, 0x00, 
	0x00, 0x00, 0x00, 0x00, 0x00, 0x00, 0x00, 0x00, 0x00, 0x00, 
	0x00, 0x00, 0x00, 0x00, 0x00, 0x00, 0x00, 0x00, 0x00, 0x00, 
	0x00, 0x00, 0x00, 0x00, 0x00, 0x00, 0x00, 0x00, 0x00, 0x00, 
	0x00, 0x00, 0x00, 0x00, 0x00, 0x00, 0x00, 0x00, 0x00, 0x00, 
	0x00, 0x00, 0x00, 0x00, 0x00, 0x00, 0x00, 0x00, 0x00, 0x00, 
	0x00, 0x00, 0x00, 0x00, 0x00, 0x00, 0x00, 0x00, 0x00, 0x00, 
	0x00, 0x00, 0x00, 0x00, 0x00, 0x00, 0x00, 0x00, 0x00, 0x00, 
	0xf0, 0x00, 0x00, 0x00, 0xf0, 0x00, 0x00, 0x00, 0x00, 0x00, 
	0x00, 0x00, 0x00, 0x00, 0x00, 0x00, 0x00, 0x00, 0x00, 0x00, 
	0x00, 0x00, 0x00, 0x00, 0x00, 0x00, 0x00, 0x00, 0x00, 0x00, 
	0x00, 0x00, 0x00, 0x00, 0x00, 0x00, 0x00, 0x00, 0x00, 0x00, 
	0x00, 0x00, 0x00, 0x00, 0x00, 0x00, 0x00, 0x00, 0x00, 0x00, 
	0x00, 0x00, 0x00, 0x00, 0x00, 0x00, 0x00, 0x00, 0x00, 0x00, 
	0x00, 0x00, 0x00, 0x00, 0x00, 0x00, 0x00, 0x00, 0x00, 0x00, 
	0x00, 0x00, 0x00, 0x00, 0x00, 0x00, 0x00, 0x00, 0x00, 0x00, 
	0x00, 0x00, 0x00, 0x00, 0x00, 0x00, 0x00, 0x00, 0x00, 0x00, 
	0x00, 0x00, 0x00, 0x00, 0x00, 0x00, 0x00, 0x00, 0x00, 0x00, 
	0x00, 0x00, 0x00, 0x00, 0x00, 0x00, 0x00, 0x00, 0x00, 0x00, 
	0x00, 0x00, 0x00, 0x00, 0x00, 0x00, 0x00, 0x00, 0x00, 0x00, 
	0x00, 0x00, 0x00, 0x00, 0x00, 0x00, 0x00, 0x00, 0xf0, 0x00, 
	0x00, 0x00, 0xf0, 0x00, 0x00, 0x00, 0x00, 0x00, 0x00, 0x00, 
	0x00, 0x00, 0x00, 0x00, 0x00, 0x00, 0x00, 0x00, 0x00, 0x00, 
	0x00, 0x00, 0x00, 0x00, 0x00, 0x00, 0x00, 0x00, 0x00, 0x00, 
	0x00, 0x00, 0x00, 0x00, 0x00, 0x00, 0x00, 0x00, 0x00, 0x00, 
	0x00, 0x00, 0x00, 0x00, 0x00, 0x00, 0x00, 0x00, 0x00, 0x00, 
	0x00, 0x00, 0x00, 0x00, 0x00, 0x00, 0x00, 0x00, 0x00, 0x00, 
	0x00, 0x00, 0x00, 0x00, 0x00, 0x00, 0x00, 0x00, 0x00, 0x00, 
	0x00, 0x00, 0x00, 0x00, 0x00, 0x00, 0x00, 0x00, 0x00, 0x00, 
	0x00, 0x00, 0x00, 0x00, 0x00, 0x00, 0x00, 0x00, 0x00, 0x00, 
	0x00, 0x00, 0x00, 0x00, 0x00, 0x00, 0x00, 0x00, 0x00, 0x00, 
	0x00, 0x00, 0x00, 0x00, 0x00, 0x00, 0x00, 0x00, 0x00, 0x00, 
	0x00, 0x00, 0x00, 0x00, 0x00, 0x00, 0x00, 0x00, 0x00, 0x00, 
	0x00, 0x00, 0x00, 0x00, 0x00, 0x00, 0xf0, 0x00, 0x00, 0x00, 
	0xf0, 0x00, 0x00, 0x00, 0x00, 0x00, 0x00, 0x00, 0x00, 0x00, 
	0x00, 0x00, 0x00, 0x00, 0x00, 0x00, 0x00, 0x00, 0x00, 0x00, 
	0x00, 0x00, 0x00, 0x00, 0x00, 0x00, 0x00, 0x00, 0x00, 0x00, 
	0x00, 0x00, 0x00, 0x00, 0x00, 0x00, 0x00, 0x00, 0x00, 0x00, 
	0x00, 0x00, 0x00, 0x00, 0x00, 0x00, 0x00, 0x00, 0x00, 0x00, 
	0x00, 0x00, 0x00, 0x00, 0x00, 0x00, 0x00, 0x00, 0x00, 0x00, 
	0x00, 0x00, 0x00, 0x00, 0x00, 0x00, 0x00, 0x00, 0x00, 0x00, 
	0x00, 0x00, 0x00, 0x00, 0x00, 0x00, 0x00, 0x00, 0x00, 0x00, 
	0x00, 0x00, 0x00, 0x00, 0x00, 0x00, 0x00, 0x00, 0x00, 0x00, 
	0x00, 0x00, 0x00, 0x00, 0x00, 0x00, 0x00, 0x00, 0x00, 0x00, 
	0x00, 0x00, 0x00, 0x00, 0x00, 0x00, 0x00, 0x00, 0x00, 0x00, 
	0x00, 0x00, 0x00, 0x00, 0x00, 0x00, 0x00, 0x00, 0x00, 0x00, 
	0x00, 0x00, 0x00, 0x00, 0xf0, 0x00, 0x00, 0x00, 0xf0, 0x00, 
	0x00, 0x00, 0x00, 0x00, 0x00, 0x00, 0x00, 0x00, 0x00, 0x00, 
	0x00, 0x00, 0x00, 0x00, 0x00, 0x00, 0x00, 0x00, 0x00, 0x00, 
	0x00, 0x00, 0x00, 0x00, 0x00, 0x00, 0x00, 0x00, 0x00, 0x00, 
	0x00, 0x00, 0x00, 0x00, 0x00, 0x00, 0x00, 0x00, 0x00, 0x00, 
	0x00, 0x00, 0x00, 0x00, 0x00, 0x00, 0x00, 0x00, 0x00, 0x00, 
	0x00, 0x00, 0x00, 0x00, 0x00, 0x00, 0x00, 0x00, 0x00, 0x00, 
	0x00, 0x00, 0x00, 0x00, 0x00, 0x00, 0x00, 0x00, 0x00, 0x00, 
	0x00, 0x00, 0x00, 0x00, 0x00, 0x00, 0x00, 0x00, 0x00, 0x00, 
	0x00, 0x00, 0x00, 0x00, 0x00, 0x00, 0x00, 0x00, 0x00, 0x00, 
	0x00, 0x00, 0x00, 0x00, 0x00, 0x00, 0x00, 0x00, 0x00, 0x00, 
	0x00, 0x00, 0x00, 0x00, 0x00, 0x00, 0x00, 0x00, 0x00, 0x00, 
	0x00, 0x00, 0x00, 0x00, 0x00, 0x00, 0x00, 0x00, 0x00, 0x00, 
	0x00, 0x00, 0xf0, 0x00, 0x00, 0x00, 0xf0, 0x00, 0x00, 0x00, 
	0x00, 0x00, 0x00, 0x00, 0x00, 0x00, 0x00, 0x00, 0x00, 0x00, 
	0x00, 0x00, 0x00, 0x00, 0x00, 0x00, 0x00, 0x00, 0x00, 0x00, 
	0x00, 0x00, 0x00, 0x00, 0x00, 0x00, 0x00, 0x00, 0x00, 0x00, 
	0x00, 0x00, 0x00, 0x00, 0x00, 0x00, 0x00, 0x00, 0x00, 0x00, 
	0x00, 0x00, 0x00, 0x00, 0x00, 0x00, 0x00, 0x00, 0x00, 0x00, 
	0x00, 0x00, 0x00, 0x00, 0x00, 0x00, 0x00, 0x00, 0x00, 0x00, 
	0x00, 0x00, 0x00, 0x00, 0x00, 0x00, 0x00, 0x00, 0x00, 0x00, 
	0x00, 0x00, 0x00, 0x00, 0x00, 0x00, 0x00, 0x00, 0x00, 0x00, 
	0x00, 0x00, 0x00, 0x00, 0x00, 0x00, 0x00, 0x00, 0x00, 0x00, 
	0x00, 0x00, 0x00, 0x00, 0x00, 0x00, 0x00, 0x00, 0x00, 0x00, 
	0x00, 0x00, 0x00, 0x00, 0x00, 0x00, 0x00, 0x00, 0x00, 0x00, 
	0x00, 0x00, 0x00, 0x00, 0x00, 0x00, 0x00, 0x00, 0x00, 0x00, 
	0xf0, 0x00, 0x00, 0x00, 0xf0, 0x00, 0x00, 0x00, 0x00, 0x00, 
	0x00, 0x00, 0x00, 0x00, 0x00, 0x00, 0x00, 0x00, 0x00, 0x00, 
	0x00, 0x00, 0x00, 0x00, 0x00, 0x00, 0x00, 0x00, 0x00, 0x00, 
	0x00, 0x00, 0x00, 0x00, 0x00, 0x00, 0x00, 0x00, 0x00, 0x00, 
	0x00, 0x00, 0x00, 0x00, 0x00, 0x00, 0x00, 0x00, 0x00, 0x00, 
	0x00, 0x00, 0x00, 0x00, 0x00, 0x00, 0x00, 0x00, 0x00, 0x00, 
	0x00, 0x00, 0x00, 0x00, 0x00, 0x00, 0x00, 0x00, 0x00, 0x00, 
	0x00, 0x00, 0x00, 0x00, 0x00, 0x00, 0x00, 0x00, 0x00, 0x00, 
	0x00, 0x00, 0x00, 0x00, 0x00, 0x00, 0x00, 0x00, 0x00, 0x00, 
	0x00, 0x00, 0x00, 0x00, 0x00, 0x00, 0x00, 0x00, 0x00, 0x00, 
	0x00, 0x00, 0x00, 0x00, 0x00, 0x00, 0x00, 0x00, 0x00, 0x00, 
	0x00, 0x00, 0x00, 0x00, 0x00, 0x00, 0x00, 0x00, 0x00, 0x00, 
	0x00, 0x00, 0x00, 0x00, 0x00, 0x00, 0x00, 0x00, 0xf0, 0x00, 
	0x00, 0x00, 0xf0, 0x00, 0x00, 0x00, 0x00, 0x00, 0x00, 0x00, 
	0x00, 0x00, 0x00, 0x00, 0x00, 0x00, 0x00, 0x00, 0x00, 0x00, 
	0x00, 0x00, 0x00, 0x00, 0x00, 0x00, 0x00, 0x00, 0x00, 0x00, 
	0x00, 0x00, 0x00, 0x00, 0x00, 0x00, 0x00, 0x00, 0x00, 0x00, 
	0x00, 0x00, 0x00, 0x00, 0x00, 0x00, 0x00, 0x00, 0x00, 0x00, 
	0x00, 0x00, 0x00, 0x00, 0x00, 0x00, 0x00, 0x00, 0x00, 0x00, 
	0x00, 0x00, 0x00, 0x00, 0x00, 0x00, 0x00, 0x00, 0x00, 0x00, 
	0x00, 0x00, 0x00, 0x00, 0x00, 0x00, 0x00, 0x00, 0x00, 0x00, 
	0x00, 0x00, 0x00, 0x00, 0x00, 0x00, 0x00, 0x00, 0x00, 0x00, 
	0x00, 0x00, 0x00, 0x00, 0x00, 0x00, 0x00, 0x00, 0x00, 0x00, 
	0x00, 0x00, 0x00, 0x00, 0x00, 0x00, 0x00, 0x00, 0x00, 0x00, 
	0x00, 0x00, 0x00, 0x00, 0x00, 0x00, 0x00, 0x00, 0x00, 0x00, 
	0x00, 0x00, 0x00, 0x00, 0x00, 0x00, 0xf0, 0x00, 0x00, 0x00, 
	0xf0, 0x00, 0x00, 0x00, 0x00, 0x00, 0x00, 0x00, 0x00, 0x00, 
	0x00, 0x00, 0x00, 0x00, 0x00, 0x00, 0x00, 0x00, 0x00, 0x00, 
	0x00, 0x00, 0x00, 0x00, 0x00, 0x00, 0x00, 0x00, 0x00, 0x00, 
	0x00, 0x00, 0x00, 0x00, 0x00, 0x00, 0x00, 0x00, 0x00, 0x00, 
	0x00, 0x00, 0x00, 0x00, 0x00, 0x00, 0x00, 0x00, 0x00, 0x00, 
	0x00, 0x00, 0x00, 0x00, 0x00, 0x00, 0x00, 0x00, 0x00, 0x00, 
	0x00, 0x00, 0x00, 0x00, 0x00, 0x00, 0x00, 0x00, 0x00, 0x00, 
	0x00, 0x00, 0x00, 0x00, 0x00, 0x00, 0x00, 0x00, 0x00, 0x00, 
	0x00, 0x00, 0x00, 0x00, 0x00, 0x00, 0x00, 0x00, 0x00, 0x00, 
	0x00, 0x00, 0x00, 0x00, 0x00, 0x00, 0x00, 0x00, 0x00, 0x00, 
	0x00, 0x00, 0x00, 0x00, 0x00, 0x00, 0x00, 0x00, 0x00, 0x00, 
	0x00, 0x00, 0x00, 0x00, 0x00, 0x00, 0x00, 0x00, 0x00, 0x00, 
	0x00, 0x00, 0x00, 0x00, 0x7e, 0x3b, 0x93, 0x79, 0x95, 0xaf, 
	0x86, 0xad, 0x45, 0x9d, 0x7d, 0x97, 0x69, 0x8a, 0x6b, 0xbb, 
	0x2e, 0xe7, 0xe5, 0x78, 0x74, 0x8f, 0x7a, 0x87, 0x59, 0xb8, 
	0x93, 0x50, 0xaa, 0xc1, 0xb9, 0xff, 0x95, 0xcc, 0x76, 0x9b, 
	0x61, 0x48, 0xaf, 0x95, 0x92, 0xbc, 0x6b, 0x9a, 0x9b, 0x9a, 
	0xc1, 0x7b, 0xb8, 0x82, 0x00, 0xa9, 0x55, 0x56, 0xaf, 0x54, 
	0xc8, 0xa2, 0x9e, 0x5b, 0x58, 0x84, 0xa9, 0xb7, 0xa5, 0xaf, 
	0x72, 0x67, 0x2c, 0x8a, 0xca, 0x76, 0xa3, 0x7e, 0xa6, 0x81, 
	0x6e, 0x95, 0x83, 0x93, 0xd4, 0x78, 0x93, 0xaf, 0x5c, 0x97, 
	0x76, 0xa3, 0x24, 0x2f, 0x61, 0xac, 0x8c, 0x27, 0xdb, 0x2a, 
	0x9b, 0x3d, 0x18, 0x3c, 0x13, 0x3d, 0x31, 0x40, 0x1f, 0xa8, 
	0x85, 0xa9, 0x8b, 0x2e, 0x3a, 0x9c, 0xf0, 0x00, 0x00, 0x00, 
	0xf0, 0x00, 0x00, 0x00, 0xf0, 0x00, 0x00, 0x00, 0xf0, 0x00, 
	0x00, 0x00, 0x00, 0x00, 0x00, 0x00, 0x00, 0x00, 0x00, 0x00, 
	0x00, 0x00, 0x00, 0x00, 0x00, 0x00, 0x00, 0x00, 0x00, 0x00, 
	0x00, 0x00, 0x00, 0x00, 0x00, 0x00, 0x00, 0x00, 0x00, 0x00, 
	0x00, 0x00, 0x00, 0x00, 0x00, 0x00, 0x00, 0x00, 0x00, 0x00, 
	0x00, 0x00, 0x00, 0x00, 0x00, 0x00, 0x00, 0x00, 0x00, 0x00, 
	0x00, 0x00, 0x00, 0x00, 0x00, 0x00, 0x00, 0x00, 0x00, 0x00, 
	0x00, 0x00, 0x00, 0x00, 0x00, 0x00, 0x00, 0x00, 0x00, 0x00, 
	0x00, 0x00, 0x00, 0x00, 0x00, 0x00, 0x00, 0x00, 0x00, 0x00, 
	0x00, 0x00, 0x00, 0x00, 0x00, 0x00, 0x00, 0x00, 0x00, 0x00, 
	0x00, 0x00, 0x00, 0x00, 0x00, 0x00, 0x00, 0x00, 0x00, 0x00, 
	0x00, 0x00, 0x00, 0x00, 0x00, 0x00, 0x00, 0x00, 0x00, 0x00, 
	0x00, 0x00, 0x00, 0x00, 0xf0, 0x00, 0x00, 0x00, 0xf0, 0x00, 
	0x00, 0x00, 0xf0, 0x00, 0x00, 0x00, 0xf0, 0x00, 0x00, 0x00, 
	0x00, 0x00, 0x00, 0x00, 0x00, 0x00, 0x00, 0x00, 0x00, 0x00, 
	0x00, 0x00, 0x00, 0x00, 0x00, 0x00, 0x00, 0x00, 0x00, 0x00, 
	0x00, 0x00, 0x00, 0x00, 0x00, 0x00, 0x00, 0x00, 0x00, 0x00, 
	0x00, 0x00, 0x00, 0x00, 0x00, 0x00, 0x00, 0x00, 0x00, 0x00, 
	0x00, 0x00, 0x00, 0x00, 0x00, 0x00, 0x00, 0x00, 0x00, 0x00, 
	0x00, 0x00, 0x00, 0x00, 0x00, 0x00, 0x00, 0x00, 0x00, 0x00, 
	0x00, 0x00, 0x00, 0x00, 0x00, 0x00, 0x00, 0x00, 0x00, 0x00, 
	0x00, 0x00, 0x00, 0x00, 0x00, 0x00, 0x00, 0x00, 0x00, 0x00, 
	0x00, 0x00, 0x00, 0x00, 0x00, 0x00, 0x00, 0x00, 0x00, 0x00, 
	0x00, 0x00, 0x00, 0x00, 0x00, 0x00, 0x00, 0x00, 0x00, 0x00, 
	0x00, 0x00, 0x00, 0x00, 0x00, 0x00, 0x00, 0x00, 0x00, 0x00, 
	0x00, 0x00, 0xf0, 0x00, 0x00, 0x00, 0xf0, 0x00, 0x00, 0x00, 
	0xf0, 0x00, 0x00, 0x00, 0xf0, 0x00, 0x00, 0x00, 0x00, 0x00, 
	0x00, 0x00, 0x00, 0x00, 0x00, 0x00, 0x00, 0x00, 0x00, 0x00, 
	0x00, 0x00, 0x00, 0x00, 0x00, 0x00, 0x00, 0x00, 0x00, 0x00, 
	0x00, 0x00, 0x00, 0x00, 0x00, 0x00, 0x00, 0x00, 0x00, 0x00, 
	0x00, 0x00, 0x00, 0x00, 0x00, 0x00, 0x00, 0x00, 0x00, 0x00, 
	0x00, 0x00, 0x00, 0x00, 0x00, 0x00, 0x00, 0x00, 0x00, 0x00, 
	0x00, 0x00, 0x00, 0x00, 0x00, 0x00, 0x00, 0x00, 0x00, 0x00, 
	0x00, 0x00, 0x00, 0x00, 0x00, 0x00, 0x00, 0x00, 0x00, 0x00, 
	0x00, 0x00, 0x00, 0x00, 0x00, 0x00, 0x00, 0x00, 0x00, 0x00, 
	0x00, 0x00, 0x00, 0x00, 0x00, 0x00, 0x00, 0x00, 0x00, 0x00, 
	0x00, 0x00, 0x00, 0x00, 0x00, 0x00, 0x00, 0x00, 0x00, 0x00, 
	0x00, 0x00, 0x00, 0x00, 0x00, 0x00, 0x00, 0x00, 0x00, 0x00, 
	0xf0, 0x00, 0x00, 0x00, 0x70, 0x00, 0x00, 0x00, 0xf0, 0x00, 
	0x00, 0x00, 0xf0, 0x00, 0x00, 0x00, 0x00, 0x00, 0x00, 0x00, 
	0x00, 0x00, 0x00, 0x00, 0x00, 0x00, 0x00, 0x00, 0x00, 0x00, 
	0x00, 0x00, 0x00, 0x00, 0x00, 0x00, 0x00, 0x00, 0x00, 0x00, 
	0x00, 0x00, 0x00, 0x00, 0x00, 0x00, 0x00, 0x00, 0x00, 0x00, 
	0x00, 0x00, 0x00, 0x00, 0x00, 0x00, 0x00, 0x00, 0x00, 0x00, 
	0x00, 0x00, 0x00, 0x00, 0x00, 0x00, 0x00, 0x00, 0x00, 0x00, 
	0x00, 0x00, 0x00, 0x00, 0x00, 0x00, 0x00, 0x00, 0x00, 0x00, 
	0x00, 0x00, 0x00, 0x00, 0x00, 0x00, 0x00, 0x00, 0x00, 0x00, 
	0x00, 0x00, 0x00, 0x00, 0x00, 0x00, 0x00, 0x00, 0x00, 0x00, 
	0x00, 0x00, 0x00, 0x00, 0x00, 0x00, 0x00, 0x00, 0x00, 0x00, 
	0x00, 0x00, 0x00, 0x00, 0x00, 0x00, 0x00, 0x00, 0x00, 0x00, 
	0x00, 0x00, 0x00, 0x00, 0x00, 0x00, 0x00, 0x00, 0xf0, 0x00, 
	0x00, 0x00, 0xf0, 0x00, 0x00, 0x00, 0xf0, 0x00, 0x00, 0x00, 
	0xf0, 0x00, 0x00, 0x00, 0x00, 0x00, 0x00, 0x00, 0x00, 0x00, 
	0x00, 0x00, 0x00, 0x00, 0x00, 0x00, 0x00, 0x00, 0x00, 0x00, 
	0x00, 0x00, 0x00, 0x00, 0x00, 0x00, 0x00, 0x00, 0x00, 0x00, 
	0x00, 0x00, 0x00, 0x00, 0x00, 0x00, 0x00, 0x00, 0x00, 0x00, 
	0x00, 0x00, 0x00, 0x00, 0x00, 0x00, 0x00, 0x00, 0x00, 0x00, 
	0x00, 0x00, 0x00, 0x00, 0x00, 0x00, 0x00, 0x00, 0x00, 0x00, 
	0x00, 0x00, 0x00, 0x00, 0x00, 0x00, 0x00, 0x00, 0x00, 0x00, 
	0x00, 0x00, 0x00, 0x00, 0x00, 0x00, 0x00, 0x00, 0x00, 0x00, 
	0x00, 0x00, 0x00, 0x00, 0x00, 0x00, 0x00, 0x00, 0x00, 0x00, 
	0x00, 0x00, 0x00, 0x00, 0x00, 0x00, 0x00, 0x00, 0x00, 0x00, 
	0x00, 0x00, 0x00, 0x00, 0x00, 0x00, 0x00, 0x00, 0x00, 0x00, 
	0x00, 0x00, 0x00, 0x00, 0x00, 0x00, 0xf0, 0x00, 0x00, 0x00, 
	0xf0, 0x00, 0x00, 0x00, 0xf0, 0x00, 0x00, 0x00, 0xf0, 0x00, 
	0x00, 0x00, 0x00, 0x00, 0x00, 0x00, 0x00, 0x00, 0x00, 0x00, 
	0x00, 0x00, 0x00, 0x00, 0x00, 0x00, 0x00, 0x00, 0x00, 0x00, 
	0x00, 0x00, 0x00, 0x00, 0x00, 0x00, 0x00, 0x00, 0x00, 0x00, 
	0x00, 0x00, 0x00, 0x00, 0x00, 0x00, 0x00, 0x00, 0x00, 0x00, 
	0x00, 0x00, 0x00, 0x00, 0x00, 0x00, 0x00, 0x00, 0x00, 0x00, 
	0x00, 0x00, 0x00, 0x00, 0x00, 0x00, 0x00, 0x00, 0x00, 0x00, 
	0x00, 0x00, 0x00, 0x00, 0x00, 0x00, 0x00, 0x00, 0x00, 0x00, 
	0x00, 0x00, 0x00, 0x00, 0x00, 0x00, 0x00, 0x00, 0x00, 0x00, 
	0x00, 0x00, 0x00, 0x00, 0x00, 0x00, 0x00, 0x00, 0x00, 0x00, 
	0x00, 0x00, 0x00, 0x00, 0x00, 0x00, 0x00, 0x00, 0x00, 0x00, 
	0x00, 0x00, 0x00, 0x00, 0x00, 0x00, 0x00, 0x00, 0x00, 0x00, 
	0x00, 0x00, 0x00, 0x00, 0xf0, 0x00, 0x00, 0x00, 0xf0, 0x00, 
	0x00, 0x00, 0xf0, 0x00, 0x00, 0x00, 0xf0, 0x00, 0x00, 0x00, 
	0x00, 0x00, 0x00, 0x00, 0x00, 0x00, 0x00, 0x00, 0x00, 0x00, 
	0x00, 0x00, 0x00, 0x00, 0x00, 0x00, 0x00, 0x00, 0x00, 0x00, 
	0x00, 0x00, 0x00, 0x00, 0x00, 0x00, 0x00, 0x00, 0x00, 0x00, 
	0x00, 0x00, 0x00, 0x00, 0x00, 0x00, 0x00, 0x00, 0x00, 0x00, 
	0x00, 0x00, 0x00, 0x00, 0x00, 0x00, 0x00, 0x00, 0x00, 0x00, 
	0x00, 0x00, 0x00, 0x00, 0x00, 0x00, 0x00, 0x00, 0x00, 0x00, 
	0x00, 0x00, 0x00, 0x00, 0x00, 0x00, 0x00, 0x00, 0x00, 0x00, 
	0x00, 0x00, 0x00, 0x00, 0x00, 0x00, 0x00, 0x00, 0x00, 0x00, 
	0x00, 0x00, 0x00, 0x00, 0x00, 0x00, 0x00, 0x00, 0x00, 0x00, 
	0x00, 0x00, 0x00, 0x00, 0x00, 0x00, 0x00, 0x00, 0x00, 0x00, 
	0x00, 0x00, 0x00, 0x00, 0x00, 0x00, 0x00, 0x00, 0x00, 0x00, 
	0x00, 0x00, 0xf0, 0x00, 0x00, 0x00, 0xf0, 0x00, 0x00, 0x00, 
	0xf0, 0x00, 0x00, 0x00, 0xf0, 0x00, 0x00, 0x00, 0x00, 0x00, 
	0x00, 0x00, 0x00, 0x00, 0x00, 0x00, 0x00, 0x00, 0x00, 0x00, 
	0x00, 0x00, 0x00, 0x00, 0x00, 0x00, 0x00, 0x00, 0x00, 0x00, 
	0x00, 0x00, 0x00, 0x00, 0x00, 0x00, 0x00, 0x00, 0x00, 0x00, 
	0x00, 0x00, 0x00, 0x00, 0x00, 0x00, 0x00, 0x00, 0x00, 0x00, 
	0x00, 0x00, 0x00, 0x00, 0x00, 0x00, 0x00, 0x00, 0x00, 0x00, 
	0x00, 0x00, 0x00, 0x00, 0x00, 0x00, 0x00, 0x00, 0x00, 0x00, 
	0x00, 0x00, 0x00, 0x00, 0x00, 0x00, 0x00, 0x00, 0x00, 0x00, 
	0x00, 0x00, 0x00, 0x00, 0x00, 0x00, 0x00, 0x00, 0x00, 0x00, 
	0x00, 0x00, 0x00, 0x00, 0x00, 0x00, 0x00, 0x00, 0x00, 0x00, 
	0x00, 0x00, 0x00, 0x00, 0x00, 0x00, 0x00, 0x00, 0x00, 0x00, 
	0x00, 0x00, 0x00, 0x00, 0x00, 0x00, 0x00, 0x00, 0x00, 0x00, 
	0xf0, 0x00, 0x00, 0x00, 0xf0, 0x00, 0x00, 0x00, 0xf0, 0x00, 
	0x00, 0x00, 0xf0, 0x00, 0x00, 0x00, 0x00, 0x00, 0x00, 0x00, 
	0x00, 0x00, 0x00, 0x00, 0x00, 0x00, 0x00, 0x00, 0x00, 0x00, 
	0x00, 0x00, 0x00, 0x00, 0x00, 0x00, 0x00, 0x00, 0x00, 0x00, 
	0x00, 0x00, 0x00, 0x00, 0x00, 0x00, 0x00, 0x00, 0x00, 0x00, 
	0x00, 0x00, 0x00, 0x00, 0x00, 0x00, 0x00, 0x00, 0x00, 0x00, 
	0x00, 0x00, 0x00, 0x00, 0x00, 0x00, 0x00, 0x00, 0x00, 0x00, 
	0x00, 0x00, 0x00, 0x00, 0x00, 0x00, 0x00, 0x00, 0x00, 0x00, 
	0x00, 0x00, 0x00, 0x00, 0x00, 0x00, 0x00, 0x00, 0x00, 0x00, 
	0x00, 0x00, 0x00, 0x00, 0x00, 0x00, 0x00, 0x00, 0x00, 0x00, 
	0x00, 0x00, 0x00, 0x00, 0x00, 0x00, 0x00, 0x00, 0x00, 0x00, 
	0x00, 0x00, 0x00, 0x00, 0x00, 0x00, 0x00, 0x00, 0x00, 0x00, 
	0x00, 0x00, 0x00, 0x00, 0x00, 0x00, 0x00, 0x00, 0x8e, 0x71, 
	0x8d, 0x86, 0xc7, 0xa5, 0x29, 0xa1, 0x37, 0x5d, 0xb2, 0xa6, 
	0x99, 0xac, 0x6c, 0xd9, 0x3e, 0x07, 0xa3, 0x7e, 0xb3, 0x01, 
	0x36, 0x4d, 0x99, 0x39, 0xa3, 0x42, 0x15, 0xa3, 0xff, 0x89, 
	0xa5, 0x37, 0x95, 0x2b, 0x95, 0x07, 0x99, 0x9c, 0x5c, 0x4c, 
	0x7c, 0x38, 0x0e, 0x79, 0x8e, 0x9c, 0x8b, 0x72, 0xaa, 0x24, 
	0x92, 0x40, 0x39, 0x8b, 0x4a, 0x93, 0xa0, 0x02, 0x2e, 0x68, 
	0xca, 0xad, 0xa1, 0xc7, 0x4b, 0x67, 0x95, 0xa3, 0x81, 0xb4, 
	0x31, 0x6f, 0xae, 0x4d, 0x9f, 0xbb, 0x62, 0xa7, 0x6a, 0xc5, 
	0x47, 0x44, 0x80, 0x51, 0xa9, 0x5e, 0xa5, 0x45, 0xa0, 0x38, 
	0x9d, 0x72, 0x6f, 0xad, 0xc5, 0xa9, 0x90, 0x40, 0x61, 0x35, 
	0x3c, 0xae, 0x94, 0x48, 0x55, 0x90, 0x7c, 0x88, 0x9b, 0x6b, 
	0x3b, 0x48, 0x3a, 0x39, 0x46, 0x79, 0xac, 0xb8, 0x50, 0x87, 
	0x86, 0xa0, 0xb4, 0x47, 0x5b, 0xa9, 0x2d, 0x94, 0x4f, 0x8d, 
	0x54, 0x6e, 0x72, 0x61, 0x4c, 0x58, 0xae, 0x91, 0xb0, 0xb2, 
	0x2a, 0x00, 0x12, 0x29, 0x1c, 0xa8, 0x5e, 0xae, 0xfa, 0x2e, 
	0xe5, 0x3b, 0x31, 0x3c, 0xcf, 0x3c, 0x6b, 0x3d, 0xcc, 0x33, 
	0x1f, 0x36, 0xc0, 0x31, 0x34, 0xb2, 0xff, 0x00, 0x00, 0x00, 
	0xff, 0x00, 0x00, 0x00, 0xff, 0x00, 0x00, 0x00, 0xff, 0x00, 
	0x00, 0x00, 0x00, 0x00, 0x00, 0x00, 0x00, 0x00, 0x00, 0x00, 
	0x00, 0x00, 0x00, 0x00, 0x00, 0x00, 0x00, 0x00, 0x00, 0x00, 
	0x00, 0x00, 0x00, 0x00, 0x00, 0x00, 0x00, 0x00, 0x00, 0x00, 
	0x00, 0x00, 0x00, 0x00, 0x00, 0x00, 0x00, 0x00, 0x00, 0x00, 
	0x00, 0x00, 0x00, 0x00, 0x00, 0x00, 0x00, 0x00, 0x00, 0x00, 
	0x00, 0x00, 0x00, 0x00, 0x00, 0x00, 0x00, 0x00, 0x00, 0x00, 
	0x00, 0x00, 0x00, 0x00, 0x00, 0x00, 0x00, 0x00, 0x00, 0x00, 
	0x00, 0x00, 0x00, 0x00, 0x00, 0x00, 0x00, 0x00, 0x00, 0x00, 
	0x00, 0x00, 0x00, 0x00, 0x00, 0x00, 0x00, 0x00, 0x00, 0x00, 
	0x00, 0x00, 0x00, 0x00, 0x00, 0x00, 0x00, 0x00, 0x00, 0x00, 
	0x00, 0x00, 0x00, 0x00, 0x00, 0x00, 0x00, 0x00, 0x00, 0x00, 
	0x00, 0x00, 0x00, 0x00, 0xff, 0x00, 0x00, 0x00, 0xff, 0x00, 
	0x00, 0x00, 0xff, 0x00, 0x00, 0x00, 0xff, 0x00, 0x00, 0x00, 
	0x00, 0x00, 0x00, 0x00, 0x00, 0x00, 0x00, 0x00, 0x00, 0x00, 
	0x00, 0x00, 0x00, 0x00, 0x00, 0x00, 0x00, 0x00, 0x00, 0x00, 
	0x00, 0x00, 0x00, 0x00, 0x00, 0x00, 0x00, 0x00, 0x00, 0x00, 
	0x00, 0x00, 0x00, 0x00, 0x00, 0x00, 0x00, 0x00, 0x00, 0x00, 
	0x00, 0x00, 0x00, 0x00, 0x00, 0x00, 0x00, 0x00, 0x00, 0x00, 
	0x00, 0x00, 0x00, 0x00, 0x00, 0x00, 0x00, 0x00, 0x00, 0x00, 
	0x00, 0x00, 0x00, 0x00, 0x00, 0x00, 0x00, 0x00, 0x00, 0x00, 
	0x00, 0x00, 0x00, 0x00, 0x00, 0x00, 0x00, 0x00, 0x00, 0x00, 
	0x00, 0x00, 0x00, 0x00, 0x00, 0x00, 0x00, 0x00, 0x00, 0x00, 
	0x00, 0x00, 0x00, 0x00, 0x00, 0x00, 0x00, 0x00, 0x00, 0x00, 
	0x00, 0x00, 0x00, 0x00, 0x00, 0x00, 0x00, 0x00, 0x00, 0x00, 
	0x00, 0x00, 0xff, 0x00, 0x00, 0x00, 0xff, 0x00, 0x00, 0x00, 
	0xff, 0x00, 0x00, 0x00, 0xff, 0x00, 0x00, 0x00, 0x00, 0x00, 
	0x00, 0x00, 0x00, 0x00, 0x00, 0x00, 0x00, 0x00, 0x00, 0x00, 
	0x00, 0x00, 0x00, 0x00, 0x00, 0x00, 0x00, 0x00, 0x00, 0x00, 
	0x00, 0x00, 0x00, 0x00, 0x00, 0x00, 0x00, 0x00, 0x00, 0x00, 
	0x00, 0x00, 0x00, 0x00, 0x00, 0x00, 0x00, 0x00, 0x00, 0x00, 
	0x00, 0x00, 0x00, 0x00, 0x00, 0x00, 0x00, 0x00, 0x00, 0x00, 
	0x00, 0x00, 0x00, 0x00, 0x00, 0x00, 0x00, 0x00, 0x00, 0x00, 
	0x00, 0x00, 0x00, 0x00, 0x00, 0x00, 0x00, 0x00, 0x00, 0x00, 
	0x00, 0x00, 0x00, 0x00, 0x00, 0x00, 0x00, 0x00, 0x00, 0x00, 
	0x00, 0x00, 0x00, 0x00, 0x00, 0x00, 0x00, 0x00, 0x00, 0x00, 
	0x00, 0x00, 0x00, 0x00, 0x00, 0x00, 0x00, 0x00, 0x00, 0x00, 
	0x00, 0x00, 0x00, 0x00, 0x00, 0x00, 0x00, 0x00, 0x00, 0x00, 
	0xff, 0x00, 0x00, 0x00, 0xff, 0x00, 0x00, 0x00, 0xff, 0x00, 
	0x00, 0x00, 0xff, 0x00, 0x00, 0x00, 0x00, 0x00, 0x00, 0x00, 
	0x00, 0x00, 0x00, 0x00, 0x00, 0x00, 0x00, 0x00, 0x00, 0x00, 
	0x00, 0x00, 0x00, 0x00, 0x00, 0x00, 0x00, 0x00, 0x00, 0x00, 
	0x00, 0x00, 0x00, 0x00, 0x00, 0x00, 0x00, 0x00, 0x00, 0x00, 
	0x00, 0x00, 0x00, 0x00, 0x00, 0x00, 0x00, 0x00, 0x00, 0x00, 
	0x00, 0x00, 0x00, 0x00, 0x00, 0x00, 0x00, 0x00, 0x00, 0x00, 
	0x00, 0x00, 0x00, 0x00, 0x00, 0x00, 0x00, 0x00, 0x00, 0x00, 
	0x00, 0x00, 0x00, 0x00, 0x00, 0x00, 0x00, 0x00, 0x00, 0x00, 
	0x00, 0x00, 0x00, 0x00, 0x00, 0x00, 0x00, 0x00, 0x00, 0x00, 
	0x00, 0x00, 0x00, 0x00, 0x00, 0x00, 0x00, 0x00, 0x00, 0x00, 
	0x00, 0x00, 0x00, 0x00, 0x00, 0x00, 0x00, 0x00, 0x00, 0x00, 
	0x00, 0x00, 0x00, 0x00, 0x00, 0x00, 0x00, 0x00, 0xff, 0x00, 
	0x00, 0x00, 0xf7, 0x00, 0x00, 0x00, 0xfb, 0x00, 0x00, 0x00, 
	0xfe, 0x00, 0x00, 0x00, 0x00, 0x00, 0x00, 0x00, 0x00, 0x00, 
	0x00, 0x00, 0x00, 0x00, 0x00, 0x00, 0x00, 0x00, 0x00, 0x00, 
	0x00, 0x00, 0x00, 0x00, 0x00, 0x00, 0x00, 0x00, 0x00, 0x00, 
	0x00, 0x00, 0x00, 0x00, 0x00, 0x00, 0x00, 0x00, 0x00, 0x00, 
	0x00, 0x00, 0x00, 0x00, 0x00, 0x00, 0x00, 0x00, 0x00, 0x00, 
	0x00, 0x00, 0x00, 0x00, 0x00, 0x00, 0x00, 0x00, 0x00, 0x00, 
	0x00, 0x00, 0x00, 0x00, 0x00, 0x00, 0x00, 0x00, 0x00, 0x00, 
	0x00, 0x00, 0x00, 0x00, 0x00, 0x00, 0x00, 0x00, 0x00, 0x00, 
	0x00, 0x00, 0x00, 0x00, 0x00, 0x00, 0x00, 0x00, 0x00, 0x00, 
	0x00, 0x00, 0x00, 0x00, 0x00, 0x00, 0x00, 0x00, 0x00, 0x00, 
	0x00, 0x00, 0x00, 0x00, 0x00, 0x00, 0x00, 0x00, 0x00, 0x00, 
	0x00, 0x00, 0x00, 0x00, 0x00, 0x00, 0xff, 0x00, 0x00, 0x00, 
	0xff, 0x00, 0x00, 0x00, 0xff, 0x00, 0x00, 0x00, 0xff, 0x00, 
	0x00, 0x00, 0x00, 0x00, 0x00, 0x00, 0x00, 0x00, 0x00, 0x00, 
	0x00, 0x00, 0x00, 0x00, 0x00, 0x00, 0x00, 0x00, 0x00, 0x00, 
	0x00, 0x00, 0x00, 0x00, 0x00, 0x00, 0x00, 0x00, 0x00, 0x00, 
	0x00, 0x00, 0x00, 0x00, 0x00, 0x00, 0x00, 0x00, 0x00, 0x00, 
	0x00, 0x00, 0x00, 0x00, 0x00, 0x00, 0x00, 0x00, 0x00, 0x00, 
	0x00, 0x00, 0x00, 0x00, 0x00, 0x00, 0x00, 0x00, 0x00, 0x00, 
	0x00, 0x00, 0x00, 0x00, 0x00, 0x00, 0x00, 0x00, 0x00, 0x00, 
	0x00, 0x00, 0x00, 0x00, 0x00, 0x00, 0x00, 0x00, 0x00, 0x00, 
	0x00, 0x00, 0x00, 0x00, 0x00, 0x00, 0x00, 0x00, 0x00, 0x00, 
	0x00, 0x00, 0x00, 0x00, 0x00, 0x00, 0x00, 0x00, 0x00, 0x00, 
	0x00, 0x00, 0x00, 0x00, 0x00, 0x00, 0x00, 0x00, 0x00, 0x00, 
	0x00, 0x00, 0x00, 0x00, 0xff, 0x00, 0x00, 0x00, 0xff, 0x00, 
	0x00, 0x00, 0xff, 0x00, 0x00, 0x00, 0xff, 0x00, 0x00, 0x00, 
	0x00, 0x00, 0x00, 0x00, 0x00, 0x00, 0x00, 0x00, 0x00, 0x00, 
	0x00, 0x00, 0x00, 0x00, 0x00, 0x00, 0x00, 0x00, 0x00, 0x00, 
	0x00, 0x00, 0x00, 0x00, 0x00, 0x00, 0x00, 0x00, 0x00, 0x00, 
	0x00, 0x00, 0x00, 0x00, 0x00, 0x00, 0x00, 0x00, 0x00, 0x00, 
	0x00, 0x00, 0x00, 0x00, 0x00, 0x00, 0x00, 0x00, 0x00, 0x00, 
	0x00, 0x00, 0x00, 0x00, 0x00, 0x00, 0x00, 0x00, 0x00, 0x00, 
	0x00, 0x00, 0x00, 0x00, 0x00, 0x00, 0x00, 0x00, 0x00, 0x00, 
	0x00, 0x00, 0x00, 0x00, 0x00, 0x00, 0x00, 0x00, 0x00, 0x00, 
	0x00, 0x00, 0x00, 0x00, 0x00, 0x00, 0x00, 0x00, 0x00, 0x00, 
	0x00, 0x00, 0x00, 0x00, 0x00, 0x00, 0x00, 0x00, 0x00, 0x00, 
	0x00, 0x00, 0x00, 0x00, 0x00, 0x00, 0x00, 0x00, 0x00, 0x00, 
	0x00, 0x00, 0x62, 0x8e, 0x6d, 0x6f, 0xb3, 0xda, 0xb1, 0x62, 
	0x13, 0x98, 0x9c, 0x70, 0x43, 0x59, 0x7a, 0x7b, 0xc1, 0x66, 
	0x63, 0xa6, 0x9f, 0xc3, 0x9b, 0x5f, 0x8d, 0x88, 0xb1, 0x27, 
	0x77, 0x7d, 0x8d, 0x7e, 0xff, 0x4c, 0xb2, 0x56, 0xad, 0x6f, 
	0x8f, 0x67, 0x00, 0xd7, 0x5a, 0x74, 0x57, 0x7a, 0xa3, 0x6f, 
	0x7b, 0x6f, 0x4b, 0x9c, 0x79, 0xd5, 0x9d, 0x5e, 0x77, 0x68, 
	0x2c, 0xbe, 0x93, 0x7a, 0x8b, 0x90, 0xb2, 0xdd, 0x58, 0x95, 
	0xcf, 0x67, 0x84, 0x65, 0x96, 0x89, 0xad, 0xa1, 0x43, 0xc6, 
	0x96, 0xb9, 0x48, 0x61, 0x2f, 0x7b, 0x97, 0xe6, 0x72, 0x4d, 
	0x83, 0x53, 0x5e, 0xbb, 0x51, 0x93, 0xc9, 0x80, 0x88, 0xa3, 
	0x80, 0x69, 0x9f, 0x97, 0x67, 0xaa, 0x9c, 0xa5, 0xa3, 0x6a, 
	0x9e, 0x6b, 0xa5, 0x2f, 0x76, 0xc7, 0x34, 0xcd, 0xaf, 0xaa, 
	0x70, 0xb3, 0xa3, 0x3b, 0x54, 0x69, 0x57, 0x51, 0x8f, 0x9d, 
	0xa1, 0x48, 0xa9, 0x65, 0xa0, 0x62, 0x4a, 0x69, 0x98, 0xc8, 
	0x7c, 0xd1, 0x63, 0x41, 0xee, 0x96, 0x7d, 0x6a, 0x42, 0x94, 
	0x72, 0xb9, 0xb8, 0x62, 0x8a, 0x54, 0x37, 0x5f, 0xf4, 0x7c, 
	0x45, 0x5c, 0x7f, 0xba, 0xcb, 0xec, 0x2d, 0x6e, 0x9b, 0x4b, 
	0x5d, 0x87, 0x98, 0x88, 0xa5, 0x7c, 0xdf, 0x63, 0x8f, 0x2c, 
	0x5d, 0xa6, 0xe1, 0x99, 0x9a, 0x77, 0x47, 0x57, 0x8b, 0x60, 
	0x7f, 0x54, 0x8d, 0xa9, 0xc5, 0x91, 0x7e, 0x63, 0x8a, 0x70, 
	0x81, 0x4a, 0x76, 0x96, 0x7b, 0x65, 0x5a, 0x84, 0x83, 0x7f, 
	0x56, 0x28, 0x7a, 0x8f, 0xdd, 0x62, 0xa4, 0x5d, 0x89, 0x8b, 
	0x2d, 0xb8, 0x82, 0x00, 0x96, 0x2a, 0xd1, 0x1e, 0x0f, 0xa5, 
	0x10, 0xa7, 0x19, 0x2b, 0xa1, 0xac, 0x0c, 0x2d, 0xf8, 0xa8, 
	0x51, 0x3e, 0x09, 0x3e, 0x56, 0x3c, 0xe3, 0x3f, 0x45, 0x3e, 
	0x66, 0x3d, 0xe0, 0x3c, 0x70, 0x3d, 0x6a, 0x37, 0x1c, 0xb0, 
	0x2c, 0x3b, 0xf4, 0x36, 0x98, 0x37, 0x9e, 0x2d, 0xa9, 0x25, 
	0x4f, 0x34, 0xff, 0xff, 0x00, 0x00, 0xfd, 0xff, 0x00, 0x00, 
	0xff, 0xff, 0x00, 0x00, 0xff, 0xfe, 0x00, 0x00, 0xff, 0xff, 
	0x00, 0x00, 0xff, 0xff, 0x00, 0x00, 0xff, 0xfe, 0x00, 0x00, 
	0xff, 0xff, 0x00, 0x00, 0x00, 0x00, 0x00, 0x00, 0x00, 0x00, 
	0x00, 0x00, 0x00, 0x00, 0x00, 0x00, 0x00, 0x00, 0x00, 0x00, 
	0x00, 0x00, 0x00, 0x00, 0x00, 0x00, 0x00, 0x00, 0x00, 0x00, 
	0x00, 0x00, 0x00, 0x00, 0x00, 0x00, 0x00, 0x00, 0x00, 0x00, 
	0x00, 0x00, 0x00, 0x00, 0x00, 0x00, 0x00, 0x00, 0x00, 0x00, 
	0x00, 0x00, 0x00, 0x00, 0x00, 0x00, 0x00, 0x00, 0x00, 0x00, 
	0x00, 0x00, 0x00, 0x00, 0x00, 0x00, 0x00, 0x00, 0x00, 0x00, 
	0x00, 0x00, 0x00, 0x00, 0x00, 0x00, 0x00, 0x00, 0x00, 0x00, 
	0x00, 0x00, 0x00, 0x00, 0x00, 0x00, 0x00, 0x00, 0x00, 0x00, 
	0x00, 0x00, 0x00, 0x00, 0x00, 0x00, 0x00, 0x00, 0x00, 0x00, 
	0xff, 0xff, 0x00, 0x00, 0xff, 0xfd, 0x00, 0x00, 0xff, 0xff, 
	0x00, 0x00, 0xff, 0xff, 0x00, 0x00, 0xff, 0xef, 0x00, 0x00, 
	0xff, 0xff, 0x00, 0x00, 0xff, 0xff, 0x00, 0x00, 0xff, 0xff, 
	0x00, 0x00, 0x00, 0x00, 0x00, 0x00, 0x00, 0x00, 0x00, 0x00, 
	0x00, 0x00, 0x00, 0x00, 0x00, 0x00, 0x00, 0x00, 0x00, 0x00, 
	0x00, 0x00, 0x00, 0x00, 0x00, 0x00, 0x00, 0x00, 0x00, 0x00, 
	0x00, 0x00, 0x00, 0x00, 0x00, 0x00, 0x00, 0x00, 0x00, 0x00, 
	0x00, 0x00, 0x00, 0x00, 0x00, 0x00, 0x00, 0x00, 0x00, 0x00, 
	0x00, 0x00, 0x00, 0x00, 0x00, 0x00, 0x00, 0x00, 0x00, 0x00, 
	0x00, 0x00, 0x00, 0x00, 0x00, 0x00, 0x00, 0x00, 0x00, 0x00, 
	0x00, 0x00, 0x00, 0x00, 0x00, 0x00, 0x00, 0x00, 0x00, 0x00, 
	0x00, 0x00, 0x00, 0x00, 0x00, 0x00, 0x00, 0x00, 0x00, 0x00, 
	0x00, 0x00, 0x00, 0x00, 0x00, 0x00, 0x00, 0x00, 0xff, 0xff, 
	0x00, 0x00, 0xff, 0xff, 0x00, 0x00, 0xff, 0xff, 0x00, 0x00, 
	0xff, 0xff, 0x00, 0x00, 0xff, 0xff, 0x00, 0x00, 0xff, 0xdf, 
	0x00, 0x00, 0xff, 0xff, 0x00, 0x00, 0xff, 0xff, 0x00, 0x00, 
	0x00, 0x00, 0x00, 0x00, 0x00, 0x00, 0x00, 0x00, 0x00, 0x00, 
	0x00, 0x00, 0x00, 0x00, 0x00, 0x00, 0x00, 0x00, 0x00, 0x00, 
	0x00, 0x00, 0x00, 0x00, 0x00, 0x00, 0x00, 0x00, 0x00, 0x00, 
	0x00, 0x00, 0x00, 0x00, 0x00, 0x00, 0x00, 0x00, 0x00, 0x00, 
	0x00, 0x00, 0x00, 0x00, 0x00, 0x00, 0x00, 0x00, 0x00, 0x00, 
	0x00, 0x00, 0x00, 0x00, 0x00, 0x00, 0x00, 0x00, 0x00, 0x00, 
	0x00, 0x00, 0x00, 0x00, 0x00, 0x00, 0x00, 0x00, 0x00, 0x00, 
	0x00, 0x00, 0x00, 0x00, 0x00, 0x00, 0x00, 0x00, 0x00, 0x00, 
	0x00, 0x00, 0x00, 0x00, 0x00, 0x00, 0x00, 0x00, 0x00, 0x00, 
	0x00, 0x00, 0x00, 0x00, 0x00, 0x00, 0xff, 0xff, 0x00, 0x00, 
	0xff, 0xff, 0x00, 0x00, 0xff, 0xff, 0x00, 0x00, 0xff, 0xff, 
	0x00, 0x00, 0xff, 0xff, 0x00, 0x00, 0xff, 0xff, 0x00, 0x00, 
	0xff, 0xff, 0x00, 0x00, 0xff, 0xff, 0x00, 0x00, 0x00, 0x00, 
	0x00, 0x00, 0x00, 0x00, 0x00, 0x00, 0x00, 0x00, 0x00, 0x00, 
	0x00, 0x00, 0x00, 0x00, 0x00, 0x00, 0x00, 0x00, 0x00, 0x00, 
	0x00, 0x00, 0x00, 0x00, 0x00, 0x00, 0x00, 0x00, 0x00, 0x00, 
	0x00, 0x00, 0x00, 0x00, 0x00, 0x00, 0x00, 0x00, 0x00, 0x00, 
	0x00, 0x00, 0x00, 0x00, 0x00, 0x00, 0x00, 0x00, 0x00, 0x00, 
	0x00, 0x00, 0x00, 0x00, 0x00, 0x00, 0x00, 0x00, 0x00, 0x00, 
	0x00, 0x00, 0x00, 0x00, 0x00, 0x00, 0x00, 0x00, 0x00, 0x00, 
	0x00, 0x00, 0x00, 0x00, 0x00, 0x00, 0x00, 0x00, 0x00, 0x00, 
	0x00, 0x00, 0x00, 0x00, 0x00, 0x00, 0x00, 0x00, 0x00, 0x00, 
	0x00, 0x00, 0x00, 0x00, 0xff, 0xff, 0x00, 0x00, 0xff, 0xff, 
	0x00, 0x00, 0xff, 0xff, 0x00, 0x00, 0xff, 0xff, 0x00, 0x00, 
	0xff, 0xff, 0x00, 0x00, 0xff, 0xff, 0x00, 0x00, 0xff, 0xff, 
	0x00, 0x00, 0xff, 0xff, 0x00, 0x00, 0x00, 0x00, 0x00, 0x00, 
	0x00, 0x00, 0x00, 0x00, 0x00, 0x00, 0x00, 0x00, 0x00, 0x00, 
	0x00, 0x00, 0x00, 0x00, 0x00, 0x00, 0x00, 0x00, 0x00, 0x00, 
	0x00, 0x00, 0x00, 0x00, 0x00, 0x00, 0x00, 0x00, 0x00, 0x00, 
	0x00, 0x00, 0x00, 0x00, 0x00, 0x00, 0x00, 0x00, 0x00, 0x00, 
	0x00, 0x00, 0x00, 0x00, 0x00, 0x00, 0x00, 0x00, 0x00, 0x00, 
	0x00, 0x00, 0x00, 0x00, 0x00, 0x00, 0x00, 0x00, 0x00, 0x00, 
	0x00, 0x00, 0x00, 0x00, 0x00, 0x00, 0x00, 0x00, 0x00, 0x00, 
	0x00, 0x00, 0x00, 0x00, 0x00, 0x00, 0x00, 0x00, 0x00, 0x00, 
	0x00, 0x00, 0x00, 0x00, 0x00, 0x00, 0x00, 0x00, 0x00, 0x00, 
	0x00, 0x00, 0x6c, 0x92, 0x9c, 0x6c, 0x2e, 0x9d, 0x48, 0x5e, 
	0x5e, 0x92, 0x9b, 0x94, 0x90, 0x4f, 0x9b, 0x57, 0x8c, 0x64, 
	0x9b, 0x7e, 0x46, 0x63, 0x5e, 0x69, 0x69, 0xca, 0x42, 0x62, 
	0x88, 0x59, 0x8c, 0xd4, 0x65, 0x4e, 0x39, 0x88, 0x00, 0x5c, 
	0x6b, 0x73, 0xbb, 0x74, 0x9b, 0xa1, 0x7c, 0x9e, 0xc6, 0x79, 
	0xa6, 0x8a, 0x94, 0x80, 0x70, 0x77, 0x97, 0x5a, 0x81, 0x91, 
	0x6e, 0x6e, 0x86, 0x75, 0xa1, 0x6b, 0x98, 0xce, 0x69, 0x76, 
	0xd1, 0x45, 0x91, 0xc2, 0xad, 0x64, 0x9c, 0x68, 0xa2, 0x78, 
	0x8d, 0x48, 0xac, 0xa0, 0x3a, 0x68, 0x7a, 0xa0, 0x56, 0x74, 
	0x7b, 0xa7, 0x89, 0x81, 0x85, 0x53, 0xab, 0x6e, 0xab, 0x5f, 
	0xa3, 0xb2, 0x70, 0x76, 0xb9, 0x44, 0x9b, 0xa9, 0x65, 0x81, 
	0xa1, 0x7d, 0x82, 0x2d, 0x62, 0xb1, 0x6b, 0x75, 0x2f, 0x3b, 
	0x66, 0xc9, 0x94, 0x3d, 0x8a, 0x98, 0x44, 0x69, 0xac, 0x88, 
	0xd3, 0x3d, 0xb0, 0x9f, 0x95, 0x99, 0x7a, 0x7a, 0x6b, 0x45, 
	0xae, 0xb1, 0x85, 0x79, 0x53, 0x8a, 0x88, 0xa4, 0x5c, 0x7c, 
	0x81, 0x43, 0xc5, 0x9c, 0x76, 0x74, 0x81, 0x2d, 0x77, 0x89, 
	0x42, 0x3f, 0x58, 0x4d, 0xa6, 0xa1, 0x4f, 0x76, 0xa9, 0x66, 
	0xb1, 0x63, 0x82, 0xcf, 0x81, 0x32, 0xb5, 0x6c, 0xad, 0x9d, 
	0x79, 0x65, 0x95, 0x4a, 0x7e, 0x98, 0x86, 0x87, 0xa5, 0x3a, 
	0x8e, 0x98, 0x59, 0x71, 0x4b, 0xae, 0xcf, 0x53, 0x8b, 0x86, 
	0x65, 0x2f, 0x80, 0x5d, 0xa7, 0x63, 0x70, 0x80, 0x89, 0x3e, 
	0x8d, 0xa3, 0xbb, 0x7e, 0x67, 0x81, 0x6c, 0x98, 0x5d, 0x37, 
	0x7a, 0x52, 0x75, 0x8a, 0x67, 0x72, 0x60, 0x92, 0x7a, 0x64, 
	0x39, 0xae, 0x63, 0x84, 0x9d, 0x80, 0xa5, 0x69, 0x6d, 0x52, 
	0x60, 0x62, 0x90, 0xa4, 0x67, 0x39, 0x8b, 0x5d, 0x94, 0x95, 
	0x86, 0x64, 0x86, 0xa1, 0x7a, 0x8a, 0xc4, 0x94, 0xa7, 0xad, 
	0x4b, 0x50, 0x9f, 0x6c, 0x3e, 0x8e, 0x8f, 0xac, 0x68, 0x66, 
	0x70, 0xae, 0x42, 0x76, 0xa6, 0x77, 0xa7, 0x9d, 0x88, 0x6d, 
	0x93, 0x69, 0x98, 0x6c, 0x47, 0x89, 0x9b, 0x9a, 0x31, 0x63, 
	0x62, 0x94, 0x36, 0x99, 0x44, 0x6b, 0x94, 0x8b, 0x33, 0x49, 
	0x9e, 0x3a, 0x81, 0x5d, 0x9e, 0x6a, 0x5f, 0xa9, 0x89, 0xc3, 
	0x46, 0xa9, 0x8e, 0x8a, 0x49, 0x51, 0x93, 0x9f, 0xca, 0x94, 
	0x81, 0x44, 0x4e, 0xa0, 0x65, 0x72, 0x94, 0x8c, 0xcb, 0x3e, 
	0x61, 0x7c, 0x99, 0x51, 0xbc, 0x59, 0x70, 0x46, 0x44, 0x54, 
	0x69, 0x63, 0x6b, 0x84, 0xa7, 0x7c, 0x73, 0x4c, 0x8b, 0x99, 
	0x61, 0x8c, 0x8f, 0x6b, 0x58, 0x69, 0x54, 0x6d, 0xac, 0xa9, 
	0x91, 0x9d, 0x85, 0x95, 0x52, 0x4f, 0xb4, 0x70, 0x96, 0x65, 
	0x70, 0x74, 0x74, 0xbb, 0xaa, 0x96, 0x7c, 0x98, 0x40, 0x9b, 
	0x61, 0x5d, 0x7b, 0x97, 0x5c, 0x7f, 0x86, 0xc0, 0x40, 0x65, 
	0xb3, 0x99, 0x8a, 0x37, 0x99, 0x47, 0x3f, 0x4a, 0xae, 0x3b, 
	0x3f, 0x89, 0x6e, 0x91, 0x55, 0x55, 0x5f, 0x74, 0x5f, 0x6a, 
	0xc1, 0x4c, 0x8e, 0xbb, 0xb8, 0x86, 0x34, 0x71, 0x63, 0x99, 
	0x36, 0x5d, 0x4f, 0xd1, 0xe4, 0x6e, 0x0e, 0x6a, 0x70, 0x35, 
	0xa3, 0x73, 0x56, 0xa0, 0x56, 0xbd, 0x8d, 0x5c, 0x60, 0x61, 
	0x6a, 0xa7, 0x8d, 0x78, 0xa8, 0x7d, 0x8b, 0x8c, 0x4c, 0x3c, 
	0xdc, 0x76, 0x61, 0x94, 0x9e, 0xb0, 0x5d, 0x8f, 0xbd, 0x8a, 
	0x57, 0x8f, 0x4a, 0x55, 0x70, 0x57, 0xa2, 0x92, 0x73, 0x9f, 
	0xb4, 0x54, 0x69, 0xad, 0xab, 0x93, 0x55, 0x5c, 0x5b, 0xaf, 
	0x89, 0x8c, 0xa7, 0x84, 0x75, 0x84, 0x6a, 0x64, 0x60, 0x84, 
	0x6d, 0x95, 0x8c, 0x84, 0x8c, 0x6b, 0x8c, 0xab, 0x7d, 0x72, 
	0x5f, 0x95, 0x51, 0x45, 0x8e, 0x8d, 0x7c, 0x5d, 0xaf, 0x44, 
	0x41, 0x6c, 0x89, 0x9c, 0x9c, 0x91, 0xbb, 0x57, 0x9d, 0xa3, 
	0x6d, 0x5e, 0x5d, 0xa2, 0x1e, 0x96, 0x61, 0x50, 0x58, 0x67, 
	0x85, 0x85, 0x45, 0xf6, 0x47, 0x93, 0x5d, 0x6d, 0xb2, 0x1e, 
	0xbb, 0x75, 0xc3, 0x48, 0x49, 0x57, 0x41, 0xb9, 0x7b, 0x79, 
	0x5a, 0xaa, 0xa8, 0xd4, 0x44, 0x82, 0x8d, 0xa6, 0x52, 0x6e, 
	0x71, 0x7a, 0xba, 0x89, 0x6d, 0x91, 0x9e, 0x46, 0x9f, 0x52, 
	0x93, 0x76, 0xb7, 0x32, 0x6d, 0x67, 0x66, 0x7a, 0xff, 0x56, 
	0x74, 0x4c, 0x97, 0x69, 0x3f, 0xbc, 0xcd, 0x48, 0x66, 0x81, 
	0x8e, 0x6a, 0x8f, 0x81, 0x9d, 0x86, 0x74, 0x85, 0x4a, 0x5f, 
	0x53, 0x67, 0xa7, 0x8a, 0x70, 0x53, 0x57, 0x9a, 0x8d, 0xab, 
	0x6c, 0x7d, 0x9b, 0x71, 0x84, 0x7a, 0x6a, 0x14, 0x8b, 0x6a, 
	0x42, 0xc9, 0x92, 0x91, 0x79, 0xa9, 0x68, 0x50, 0x5c, 0xc2, 
	0x88, 0x67, 0x77, 0x1e, 0x16, 0x81, 0x7d, 0x27, 0xc6, 0x23, 
	0xe6, 0x12, 0x15, 0x24, 0x52, 0xa4, 0x6d, 0x9e, 0x2f, 0x25, 
	0x0d, 0xa1, 0xb4, 0xa4, 0xec, 0x26, 0x71, 0x93, 0xcc, 0xa9, 
	0x77, 0x9c, 0x9f, 0xa7, 0x8b, 0x16, 0x54, 0x26, 0x30, 0x3f, 
	0xaf, 0x3f, 0x5c, 0x3f, 0xf3, 0x3d, 0x7c, 0x3d, 0xed, 0x3f, 
	0x18, 0x3e, 0x01, 0x41, 0x62, 0x3f, 0x6a, 0x3e, 0x4b, 0x3b, 
	0x87, 0x42, 0x17, 0x40, 0x58, 0x42, 0xa8, 0x3e, 0xd5, 0x40, 
	0xe7, 0x2c, 0xbc, 0x36, 0x72, 0x34, 0xe2, 0x36, 0x49, 0x3d, 
	0x81, 0x39, 0xfd, 0xb8, 0x1e, 0x39, 0x3f, 0x3c, 0x5b, 0x36, 
	0xfa, 0xb5, 0x3b, 0x21, 0xcb, 0x37, 0x7d, 0x3b, 0x55, 0x2d, 
	0x04, 0x35, 0xff, 0xff, 0xff, 0xff, 0xff, 0xff, 0xff, 0xff, 
	0xff, 0xff, 0xff, 0xff, 0xff, 0xff, 0xff, 0xff, 0xff, 0xff, 
	0xff, 0xff, 0xff, 0xff, 0xff, 0xff, 0xff, 0xff, 0xff, 0xef, 
	0xff, 0xdf, 0xff, 0xff, 0xff, 0xff, 0xff, 0xff, 0xff, 0xff, 
	0xff, 0xff, 0xff, 0xff, 0xff, 0xff, 0xff, 0xff, 0xff, 0xff, 
	0xff, 0xff, 0xff, 0xff, 0xff, 0xff, 0xff, 0xff, 0xff, 0xff, 
	0xff, 0xff, 0xff, 0xff, 0xff, 0xff, 0x00, 0x00, 0x00, 0x00, 
	0x00, 0x00, 0x00, 0x00, 0x00, 0x00, 0x00, 0x00, 0x00, 0x00, 
	0x00, 0x00, 0x00, 0x00, 0x00, 0x00, 0x00, 0x00, 0x00, 0x00, 
	0x00, 0x00, 0x00, 0x00, 0x00, 0x00, 0x00, 0x00, 0x00, 0x00, 
	0x00, 0x00, 0x00, 0x00, 0x00, 0x00, 0x00, 0x00, 0x00, 0x00, 
	0x00, 0x00, 0x00, 0x00, 0x00, 0x00, 0x00, 0x00, 0x00, 0x00, 
	0x00, 0x00, 0x00, 0x00, 0x00, 0x00, 0x00, 0x00, 0x00, 0x00, 
	0xff, 0xff, 0xff, 0xfb, 0xff, 0xff, 0xff, 0xff, 0xff, 0xff, 
	0xff, 0xff, 0xff, 0xff, 0xff, 0xff, 0xff, 0xff, 0xff, 0xff, 
	0xff, 0xff, 0xff, 0xff, 0xff, 0xff, 0xff, 0xef, 0xff, 0xff, 
	0xff, 0xff, 0xff, 0xff, 0xff, 0xff, 0xff, 0xff, 0xff, 0xef, 
	0xff, 0xff, 0xff, 0xff, 0xff, 0xff, 0xff, 0xff, 0xff, 0xff, 
	0xff, 0xff, 0xff, 0xff, 0xff, 0xff, 0xff, 0xff, 0xff, 0xff, 
	0xdf, 0xff, 0xff, 0xff, 0x00, 0x00, 0x00, 0x00, 0x00, 0x00, 
	0x00, 0x00, 0x00, 0x00, 0x00, 0x00, 0x00, 0x00, 0x00, 0x00, 
	0x00, 0x00, 0x00, 0x00, 0x00, 0x00, 0x00, 0x00, 0x00, 0x00, 
	0x00, 0x00, 0x00, 0x00, 0x00, 0x00, 0x00, 0x00, 0x00, 0x00, 
	0x00, 0x00, 0x00, 0x00, 0x00, 0x00, 0x00, 0x00, 0x00, 0x00, 
	0x00, 0x00, 0x00, 0x00, 0x00, 0x00, 0x00, 0x00, 0x00, 0x00, 
	0x00, 0x00, 0x00, 0x00, 0x00, 0x00, 0x00, 0x00, 0xff, 0xff, 
	0xff, 0x7f, 0xff, 0xff, 0xff, 0xff, 0xff, 0xff, 0xff, 0xff, 
	0xff, 0xff, 0xff, 0xff, 0xff, 0xff, 0xff, 0xff, 0xff, 0xff, 
	0xff, 0xff, 0xff, 0xff, 0xff, 0xff, 0xff, 0xff, 0xff, 0xff, 
	0xff, 0xff, 0xff, 0xff, 0xff, 0xff, 0xff, 0xff, 0xff, 0xff, 
	0xff, 0xff, 0xff, 0xff, 0xff, 0xff, 0xff, 0xff, 0xff, 0xff, 
	0xff, 0xff, 0xff, 0xff, 0xff, 0xff, 0xff, 0xff, 0xff, 0xff, 
	0xff, 0xff, 0x00, 0x00, 0x00, 0x00, 0x00, 0x00, 0x00, 0x00, 
	0x00, 0x00, 0x00, 0x00, 0x00, 0x00, 0x00, 0x00, 0x00, 0x00, 
	0x00, 0x00, 0x00, 0x00, 0x00, 0x00, 0x00, 0x00, 0x00, 0x00, 
	0x00, 0x00, 0x00, 0x00, 0x00, 0x00, 0x00, 0x00, 0x00, 0x00, 
	0x00, 0x00, 0x00, 0x00, 0x00, 0x00, 0x00, 0x00, 0x00, 0x00, 
	0x00, 0x00, 0x00, 0x00, 0x00, 0x00, 0x00, 0x00, 0x00, 0x00, 
	0x00, 0x00, 0x00, 0x00, 0x00, 0x00, 0x9a, 0x67, 0x40, 0x8d, 
	0xaa, 0x2b, 0x5e, 0xa3, 0x54, 0xb6, 0xcf, 0x54, 0xc8, 0x7c, 
	0xd0, 0x3d, 0x59, 0x23, 0x9f, 0x8e, 0xa1, 0xa6, 0x59, 0x28, 
	0x64, 0x61, 0x73, 0x56, 0x64, 0xb4, 0xae, 0x75, 0xa1, 0x86, 
	0x4e, 0xa9, 0x4e, 0x7a, 0x5b, 0xe3, 0x78, 0x7a, 0xb2, 0x1b, 
	0x62, 0x9d, 0xe0, 0x6a, 0x3a, 0x93, 0x88, 0x93, 0x66, 0x84, 
	0x1d, 0x5a, 0x78, 0xcd, 0x6c, 0x98, 0x73, 0xc7, 0x98, 0x74, 
	0x8f, 0x3c, 0x5b, 0x90, 0x80, 0x92, 0x9c, 0xac, 0x8a, 0x94, 
	0x4b, 0x58, 0x83, 0x58, 0x4a, 0x41, 0x80, 0x48, 0x64, 0x0f, 
	0xa4, 0x9a, 0xad, 0x83, 0xac, 0x7c, 0x36, 0xb5, 0xba, 0x96, 
	0x97, 0x45, 0x49, 0x9b, 0x79, 0x58, 0x42, 0x73, 0x74, 0x18, 
	0x60, 0xc5, 0x88, 0x4c, 0x5f, 0x93, 0x86, 0x2e, 0x84, 0x4c, 
	0xba, 0x75, 0xab, 0xb2, 0x88, 0x5d, 0x2c, 0x22, 0xa8, 0x71, 
	0x83, 0x6e, 0x90, 0xa7, 0x9b, 0x81, 0xc0, 0x8c, 0xaf, 0xb6, 
	0x68, 0x54, 0x45, 0x67, 0x94, 0x5e, 0x1d, 0x80, 0x5b, 0x7a, 
	0xad, 0x47, 0x6d, 0xb2, 0x57, 0x49, 0x3b, 0x65, 0x86, 0xc6, 
	0xb2, 0x6b, 0x3e, 0x37, 0x6b, 0xe5, 0xa1, 0x80, 0x96, 0x9c, 
	0x87, 0xc8, 0xc8, 0x3b, 0x54, 0xc1, 0xb0, 0x51, 0x65, 0x70, 
	0x92, 0x41, 0x8e, 0x6d, 0x7e, 0xa5, 0xa3, 0x7c, 0x66, 0xa6, 
	0xa9, 0x72, 0x44, 0x5a, 0x72, 0x3c, 0x51, 0xa2, 0x80, 0x73, 
	0x43, 0xa5, 0x94, 0x84, 0x9e, 0x48, 0x3b, 0x7b, 0xab, 0x8c, 
	0x94, 0xc3, 0xb4, 0x1b, 0x59, 0xa4, 0xda, 0xaf, 0x8e, 0x86, 
	0x5c, 0x80, 0x48, 0x74, 0x78, 0x62, 0x96, 0xc9, 0x71, 0x83, 
	0xc4, 0xd0, 0x82, 0xd2, 0x82, 0x84, 0x44, 0x9b, 0x62, 0x31, 
	0x6e, 0xa3, 0x5f, 0x9d, 0xe0, 0x67, 0x92, 0x9f, 0x47, 0x5e, 
	0x3f, 0x4f, 0xbb, 0x5f, 0x7d, 0x8a, 0x7e, 0xae, 0x31, 0x9a, 
	0x5d, 0xc6, 0x8d, 0x94, 0x87, 0x69, 0x4e, 0x6c, 0x78, 0x55, 
	0xd0, 0x61, 0x86, 0x4e, 0xba, 0x74, 0xa3, 0x93, 0x5c, 0xda, 
	0xaf, 0x5c, 0x59, 0x9e, 0xc7, 0x8b, 0xa1, 0x9d, 0x88, 0x8f, 
	0x64, 0x4e, 0xb6, 0x48, 0x92, 0xc8, 0xae, 0x87, 0xba, 0x84, 
	0x20, 0x64, 0x44, 0x1b, 0x89, 0xca, 0xa1, 0x57, 0x8a, 0x6e, 
	0x69, 0x77, 0x86, 0x71, 0x61, 0x5a, 0xba, 0xac, 0xa3, 0x9f, 
	0x52, 0xaf, 0x44, 0x37, 0x51, 0x6f, 0x5f, 0x3a, 0xa8, 0x99, 
	0xb0, 0x75, 0x6a, 0x84, 0x6b, 0x7a, 0x58, 0x1f, 0x22, 0x56, 
	0x44, 0x36, 0xb3, 0x94, 0x93, 0x60, 0x8d, 0x70, 0x31, 0x5f, 
	0x4e, 0x88, 0x65, 0x37, 0x40, 0x70, 0xa7, 0x2a, 0x8c, 0x49, 
	0x6f, 0x26, 0x98, 0xaf, 0x30, 0x9f, 0xcb, 0x64, 0x98, 0x8b, 
	0x87, 0x8d, 0x9d, 0x65, 0x84, 0x8e, 0x7e, 0x2f, 0x5f, 0x46, 
	0x85, 0x45, 0x7b, 0x54, 0x83, 0x3f, 0xb5, 0x72, 0x3b, 0x7a, 
	0xb8, 0xa8, 0x8f, 0x52, 0x5f, 0xae, 0x9b, 0x64, 0x77, 0x44, 
	0x5e, 0x46, 0x39, 0x39, 0x56, 0x7c, 0x7d, 0x11, 0x38, 0x4d, 
	0x4d, 0x5b, 0xac, 0x85, 0x78, 0xdb, 0x48, 0x25, 0x37, 0x69, 
	0x51, 0x5b, 0x8d, 0x56, 0x92, 0x66, 0x92, 0x3c, 0x7a, 0x6d, 
	0x7a, 0x40, 0x83, 0xb1, 0x80, 0x3c, 0x96, 0x96, 0x64, 0x3e, 
	0x3a, 0x59, 0x54, 0x22, 0x6f, 0x66, 0x39, 0xa2, 0x67, 0x45, 
	0x64, 0x60, 0x8b, 0x9b, 0x73, 0x5d, 0x5d, 0x89, 0x92, 0x58, 
	0x5f, 0x86, 0xad, 0x47, 0x7c, 0x3b, 0x66, 0x70, 0x81, 0x46, 
	0xef, 0x96, 0x74, 0x67, 0x96, 0xa6, 0x39, 0xab, 0x63, 0x9b, 
	0x70, 0x6e, 0x5f, 0x99, 0x4b, 0xaa, 0xc9, 0xdf, 0x84, 0x78, 
	0x76, 0xd6, 0x2d, 0x69, 0x74, 0x77, 0xd5, 0x60, 0xd7, 0x75, 
	0xbe, 0x63, 0x67, 0x7d, 0xac, 0x9c, 0x33, 0x78, 0x98, 0x5e, 
	0x4e, 0x8b, 0x2d, 0xb1, 0xa0, 0x11, 0x35, 0x9b, 0x50, 0x62, 
	0xb8, 0x4d, 0xa6, 0xab, 0x51, 0x38, 0xa2, 0x4b, 0x9d, 0xa7, 
	0x6b, 0x8c, 0x94, 0x75, 0x40, 0xbc, 0x41, 0xb9, 0x91, 0x4b, 
	0x4a, 0x54, 0x8e, 0xd3, 0xba, 0xc4, 0x9f, 0x86, 0x64, 0x87, 
	0x6b, 0x86, 0x40, 0x85, 0x8c, 0xa3, 0x22, 0xc2, 0x85, 0xe7, 
	0x78, 0x98, 0x00, 0x38, 0x38, 0xd5, 0x5b, 0xb1, 0x75, 0x2e, 
	0x37, 0x31, 0x12, 0x83, 0xc3, 0x28, 0x3a, 0x7d, 0x12, 0xb6, 
	0x2f, 0x71, 0xa8, 0x3c, 0x5d, 0xa2, 0x93, 0xa6, 0x52, 0x7a, 
	0xc9, 0x57, 0x62, 0x39, 0x21, 0x53, 0x75, 0x40, 0x6b, 0x54, 
	0xda, 0x57, 0x22, 0x4a, 0x65, 0x3e, 0x84, 0x4c, 0x56, 0x4c, 
	0x38, 0xa6, 0x64, 0x0b, 0x56, 0x6e, 0x66, 0x4f, 0x6e, 0x7d, 
	0x82, 0x5a, 0x58, 0x8c, 0x8b, 0x75, 0x9b, 0x49, 0x3a, 0x78, 
	0x84, 0x5e, 0xb3, 0xa7, 0x8f, 0x6d, 0x60, 0xca, 0x4e, 0x93, 
	0x4a, 0xc8, 0x5b, 0x40, 0xa3, 0xb3, 0xba, 0xc0, 0x8d, 0x97, 
	0x34, 0x52, 0xe2, 0xbc, 0x60, 0x5f, 0x1a, 0x2f, 0xc9, 0x7b, 
	0x91, 0x67, 0x93, 0x98, 0x90, 0x85, 0x53, 0xb2, 0x40, 0xa2, 
	0x72, 0x8d, 0x7d, 0x5a, 0x79, 0xb9, 0x5d, 0x39, 0x75, 0x9b, 
	0x53, 0xae, 0x57, 0x7d, 0x8c, 0x79, 0x78, 0x4e, 0x6a, 0x8f, 
	0xa6, 0xa4, 0x89, 0xa7, 0x61, 0x84, 0xc6, 0x35, 0x42, 0x5e, 
	0x30, 0x6a, 0x6b, 0x27, 0x9a, 0x5a, 0xc0, 0x51, 0x90, 0x3a, 
	0x65, 0x64, 0x5d, 0x82, 0x79, 0x64, 0x6a, 0x61, 0x60, 0x2d, 
	0x9b, 0x4e, 0xb6, 0xa7, 0xb0, 0xbb, 0x94, 0x74, 0x45, 0x59, 
	0xa5, 0xad, 0x81, 0x40, 0x60, 0x84, 0x80, 0x6f, 0x8a, 0x5c, 
	0x59, 0x61, 0xaa, 0x68, 0xcd, 0x9e, 0xb0, 0xbc, 0x78, 0x7d, 
	0xa3, 0x29, 0xa6, 0x49, 0x67, 0x83, 0x27, 0x4d, 0x92, 0x83, 
	0xdc, 0xa2, 0x7e, 0x55, 0x7d, 0x7e, 0xd0, 0x5f, 0x44, 0x88, 
	0x2e, 0x79, 0xa8, 0x3a, 0xb6, 0x1b, 0x9f, 0x4f, 0x4d, 0x78, 
	0x55, 0x95, 0xa5, 0xa2, 0x47, 0x90, 0xc5, 0x91, 0x70, 0x69, 
	0x67, 0x6a, 0xc1, 0xbb, 0x5f, 0x89, 0xc0, 0x43, 0xb7, 0x8a, 
	0x6c, 0x77, 0x92, 0x53, 0x5e, 0x7d, 0x48, 0x9c, 0xbb, 0xaf, 
	0x78, 0x91, 0xa4, 0x58, 0x59, 0x70, 0xce, 0x31, 0x56, 0x14, 
	0x8e, 0x7b, 0x47, 0x4e, 0x4d, 0x65, 0xb8, 0xae, 0x80, 0x41, 
	0x9d, 0xcb, 0x8c, 0x5f, 0x34, 0x63, 0x8d, 0x5c, 0x87, 0x8e, 
	0x58, 0x7e, 0x2a, 0x61, 0x77, 0x9c, 0x27, 0x6a, 0x77, 0x9c, 
	0x77, 0x73, 0x64, 0x1a, 0x89, 0x89, 0x64, 0x9d, 0x96, 0x73, 
	0x66, 0x59, 0x52, 0x2f, 0x8a, 0x21, 0x1a, 0x77, 0x3f, 0x6d, 
	0x44, 0x68, 0x73, 0x89, 0x87, 0x61, 0x52, 0x15, 0x7e, 0x8d, 
	0xac, 0xab, 0xb4, 0x99, 0xd9, 0x32, 0x88, 0x42, 0x8f, 0x60, 
	0xa8, 0x6a, 0xd3, 0x80, 0x61, 0xb1, 0x4c, 0x54, 0x8a, 0x78, 
	0x67, 0x44, 0x6d, 0x79, 0x96, 0x4e, 0x3a, 0x82, 0x8d, 0x53, 
	0x39, 0x78, 0x01, 0x52, 0x51, 0x94, 0x46, 0xba, 0xce, 0x4a, 
	0x70, 0xb3, 0x64, 0x53, 0x6f, 0x16, 0x27, 0x55, 0x64, 0x6c, 
	0x9a, 0x5c, 0x85, 0x97, 0xb8, 0x87, 0x7a, 0xb1, 0x8b, 0xba, 
	0x44, 0x45, 0x93, 0xaf, 0xa1, 0xd8, 0x1d, 0x81, 0x89, 0x2a, 
	0x8c, 0x2e, 0xbc, 0x7d, 0x63, 0xb9, 0x18, 0x55, 0x76, 0x7d, 
	0x61, 0x9d, 0x5a, 0x8c, 0x8b, 0x46, 0xa1, 0x71, 0x9e, 0x8e, 
	0x61, 0xb8, 0x53, 0x8c, 0x52, 0x9a, 0x79, 0xa5, 0x78, 0xc7, 
	0x53, 0x7e, 0x77, 0x97, 0x54, 0x55, 0x48, 0x64, 0x58, 0x6d, 
	0x92, 0x73, 0xae, 0x3b, 0xb2, 0x44, 0x87, 0x84, 0x3b, 0x93, 
	0x3b, 0x7c, 0xc8, 0xb2, 0xff, 0x39, 0xa0, 0x54, 0x5a, 0xa7, 
	0x6f, 0x78, 0xa9, 0xaf, 0x45, 0x18, 0x80, 0x41, 0x5d, 0xa6, 
	0x39, 0x6e, 0x93, 0x6e, 0x7e, 0x39, 0x5f, 0xe4, 0xb3, 0xbb, 
	0xc0, 0x84, 0x3d, 0x55, 0x97, 0x9b, 0x36, 0x87, 0x61, 0xb5, 
	0x95, 0x96, 0x53, 0x90, 0x25, 0xa8, 0x48, 0x90, 0x93, 0xb7, 
	0x4a, 0x7d, 0x6c, 0x45, 0x3a, 0xb8, 0x7b, 0x7e, 0x45, 0x25, 
	0x25, 0xb7, 0x49, 0x62, 0xbb, 0x96, 0x61, 0x5f, 0x92, 0x83, 
	0x74, 0x4a, 0x66, 0x7b, 0x9e, 0x75, 0xaf, 0xb8, 0x48, 0x76, 
	0x6f, 0x9a, 0x1f, 0x98, 0x93, 0xb0, 0xba, 0x31, 0x4a, 0x71, 
	0xad, 0x8a, 0x6c, 0x66, 0x5c, 0x5a, 0x91, 0xca, 0x87, 0x7a, 
	0x8b, 0xb6, 0x3c, 0x78, 0x35, 0x8c, 0xa6, 0x75, 0x94, 0x69, 
	0xd1, 0x98, 0x8e, 0x77, 0x5b, 0x52, 0xa3, 0x3d, 0xb1, 0x60, 
	0x8a, 0x72, 0x3e, 0xce, 0x8c, 0xb7, 0x46, 0x47, 0xab, 0x58, 
	0x3d, 0xa0, 0x51, 0xa4, 0x81, 0x6d, 0x91, 0x8b, 0x9b, 0x9b, 
	0x63, 0xaa, 0x99, 0x7a, 0x96, 0x4a, 0x7e, 0x40, 0x83, 0x7a, 
	0xb3, 0x4c, 0x93, 0x94, 0xae, 0x81, 0xd8, 0x5d, 0x5b, 0x96, 
	0xc2, 0x9d, 0x50, 0x1d, 0x53, 0x8e, 0xb4, 0xaf, 0xba, 0x4c, 
	0x99, 0xb7, 0xc7, 0x6a, 0x3e, 0xe3, 0x4e, 0x9d, 0xc2, 0x64, 
	0x95, 0x7b, 0x75, 0x37, 0x44, 0x66, 0x94, 0x77, 0x21, 0x8f, 
	0x8c, 0x4b, 0xaa, 0x85, 0x8f, 0x48, 0x6d, 0x83, 0x75, 0x72, 
	0x6b, 0x73, 0xa5, 0x42, 0x5c, 0x78, 0xaa, 0x8f, 0xa7, 0x76, 
	0x7e, 0x5c, 0x65, 0x95, 0xb9, 0x8c, 0x40, 0x49, 0xbf, 0xcd, 
	0xaf, 0x7a, 0x39, 0x64, 0x39, 0x3c, 0x6a, 0x6b, 0xae, 0x9f, 
	0x52, 0x7b, 0x76, 0x6f, 0x6b, 0xa1, 0x28, 0x51, 0x59, 0x9a, 
	0x3e, 0x5c, 0x34, 0x6a, 0x1e, 0x31, 0x68, 0xab, 0x6e, 0xb0, 
	0x9f, 0x7e, 0x5c, 0x80, 0xc3, 0x8f, 0x9a, 0xad, 0x88, 0xb0, 
	0x69, 0x4d, 0x34, 0x7a, 0x9a, 0x77, 0x6d, 0x53, 0xbc, 0x8b, 
	0x59, 0x8c, 0x78, 0x44, 0x74, 0x4c, 0xae, 0x74, 0x80, 0x43, 
	0x47, 0xa0, 0xa3, 0xae, 0x76, 0x0b, 0x94, 0x87, 0xab, 0x5e, 
	0xba, 0x5c, 0x3d, 0x44, 0xa5, 0x4e, 0x7a, 0x4c, 0xda, 0x41, 
	0xed, 0x9b, 0x60, 0x98, 0xb8, 0xf3, 0x78, 0xb9, 0x88, 0x7c, 
	0x85, 0xad, 0x59, 0x81, 0x8e, 0xb0, 0x55, 0x8d, 0x91, 0x83, 
	0x6a, 0xe6, 0x5c, 0x6d, 0xde, 0xc9, 0xa1, 0x67, 0x80, 0x9f, 
	0x52, 0x92, 0x4b, 0x85, 0x50, 0x64, 0x5b, 0x3d, 0x69, 0xd4, 
	0x9b, 0x83, 0x64, 0x9e, 0x63, 0x81, 0x62, 0x6f, 0x91, 0xfa, 
	0x93, 0x94, 0xa2, 0xbc, 0x67, 0x9e, 0x9a, 0xa0, 0x6d, 0x58, 
	0x99, 0xbc, 0x18, 0x7c, 0x98, 0x8f, 0x99, 0xba, 0x65, 0x7a, 
	0x86, 0x94, 0x55, 0x9a, 0x7d, 0x50, 0x5a, 0x69, 0xa6, 0xb6, 
	0x7a, 0x8b, 0x7c, 0xae, 0x24, 0x9e, 0x63, 0x56, 0xe0, 0x83, 
	0x9b, 0x4f, 0x56, 0x6f, 0x43, 0x83, 0x6b, 0x45, 0x69, 0x92, 
	0xb2, 0x82, 0x25, 0x51, 0x7b, 0x3f, 0x6d, 0x67, 0x60, 0x8e, 
	0xd6, 0x17, 0x6d, 0x81, 0xa0, 0x99, 0x5c, 0xaa, 0xce, 0x41, 
	0x53, 0x98, 0x60, 0x3c, 0x23, 0xa6, 0x44, 0x46, 0x94, 0xa7, 
	0x52, 0x7c, 0x68, 0x61, 0x56, 0x5a, 0xaf, 0x8a, 0x5d, 0xc7, 
	0x93, 0xe5, 0xc0, 0x9d, 0x5a, 0xbf, 0x59, 0x50, 0xd2, 0xb0, 
	0xa6, 0x94, 0xd8, 0x65, 0x9f, 0xf0, 0x89, 0x82, 0xd3, 0x34, 
	0x42, 0xa0, 0x8a, 0x93, 0x61, 0x7b, 0x6d, 0xb2, 0xd8, 0x70, 
	0x7a, 0x90, 0x76, 0x43, 0x96, 0xc1, 0x6a, 0x8c, 0x8a, 0x8f, 
	0x91, 0x62, 0xb1, 0x49, 0xc7, 0x94, 0xae, 0xa7, 0x56, 0x8c, 
	0xaa, 0x6b, 0x54, 0x8d, 0x68, 0xa9, 0x61, 0x5d, 0x99, 0x5b, 
	0x4f, 0x7d, 0xaf, 0x4f, 0x43, 0x42, 0x41, 0xbc, 0x9c, 0x8f, 
	0xc7, 0xd2, 0x39, 0x2a, 0xc2, 0x50, 0x45, 0x46, 0x75, 0x9b, 
	0x71, 0x6f, 0x81, 0x75, 0xbc, 0x63, 0x47, 0x9e, 0x4a, 0x78, 
	0x49, 0x55, 0x44, 0x87, 0x8a, 0x00, 0x88, 0xa0, 0x21, 0x11, 
	0xfa, 0x9e, 0x9f, 0x96, 0xea, 0x16, 0x2c, 0x18, 0x12, 0x93, 
	0x73, 0x9c, 0xe2, 0x94, 0xa5, 0x98, 0xe0, 0x18, 0x9b, 0x9d, 
	0x95, 0x1d, 0x1d, 0x95, 0x29, 0x0c, 0x5a, 0x98, 0x2a, 0x1a, 
	0x3d, 0x19, 0xda, 0x12, 0x85, 0x94, 0xa3, 0x12, 0xb6, 0x91, 
	0x12, 0x9b, 0x89, 0x99, 0xb3, 0x93, 0x96, 0x1d, 0x7f, 0x9d, 
	0xb8, 0x9c, 0x75, 0x9b, 0x26, 0x1e, 0x04, 0x9b, 0x23, 0x12, 
	0xee, 0x3f, 0x5f, 0x3f, 0x04, 0x3e, 0x05, 0x40, 0x9e, 0x3d, 
	0x9b, 0x3f, 0x07, 0x3b, 0xdd, 0x3e, 0x8e, 0x40, 0xea, 0x3e, 
	0x2d, 0x3f, 0xd2, 0x3e, 0x1d, 0x40, 0x91, 0x3e, 0x2c, 0x40, 
	0x75, 0x3d, 0xcc, 0x3d, 0x78, 0x3f, 0xd0, 0x3a, 0x9b, 0x3f, 
	0xfb, 0x3f, 0xe7, 0x3e, 0xd7, 0x3e, 0xf2, 0x3e, 0xe1, 0x3c, 
	0x31, 0x40, 0x95, 0x40, 0x73, 0x40, 0xc9, 0x3f, 0x0c, 0x40, 
	0xb7, 0x3f, 0x0b, 0x3e, 0x7d, 0x3b, 0x4b, 0x3d, 0x59, 0x35, 
	0xcb, 0xb9, 0xa1, 0xba, 0x56, 0x3b, 0x8b, 0xb9, 0x89, 0x2c, 
	0x5e, 0x3c, 0xd3, 0xa9, 0x36, 0xbf, 0x21, 0x3c, 0x41, 0x38, 
	0x15, 0x35, 0x05, 0xbb, 0xc6, 0x38, 0x42, 0xaf, 0x0c, 0x3b, 
	0x3c, 0xb5, 0xbe, 0xb8, 0xc1, 0x38, 0xe9, 0xba, 0x1c, 0x3d, 
	0xac, 0x3c, 0x18, 0xb6, 0x29, 0x3d, 0x5f, 0x34, 0x91, 0x32, 
	0xca, 0x3d, 0x34, 0x37, 0xd0, 0x30, 0x7a, 0x36, 0xff, 0xff, 
	0xff, 0xff, 0xff, 0xff, 0xff, 0xff, 0xff, 0xff, 0xff, 0xff, 
	0xff, 0xff, 0xff, 0xff, 0xff, 0xff, 0xff, 0xff, 0xff, 0xef, 
	0xff, 0xff, 0xff, 0xff, 0xff, 0xff, 0xff, 0xff, 0xff, 0xff, 
	0xff, 0xff, 0xff, 0xff, 0xff, 0xff, 0xff, 0xff, 0xff, 0x7f, 
	0xff, 0xff, 0xff, 0xff, 0xff, 0xff, 0xff, 0xff, 0xfb, 0xfe, 
	0xff, 0xff, 0xff, 0xff, 0xff, 0xff, 0xff, 0xff, 0xff, 0xff, 
	0xff, 0xff, 0xff, 0xff, 0xff, 0xff, 0xff, 0xff, 0xff, 0xff, 
	0xff, 0xff, 0xff, 0xff, 0xff, 0xff, 0xff, 0xff, 0xff, 0xff, 
	0xff, 0xff, 0xfe, 0xff, 0x7d, 0xff, 0xff, 0xff, 0xff, 0xbf, 
	0xff, 0xff, 0xff, 0xff, 0xff, 0xff, 0xff, 0xff, 0xff, 0xff, 
	0xff, 0xff, 0xff, 0xff, 0xff, 0xfe, 0xff, 0xff, 0xf7, 0xff, 
	0xff, 0xff, 0xff, 0xff, 0xff, 0xff, 0xff, 0xff, 0xff, 0xff, 
	0xff, 0xff, 0xff, 0xff, 0xff, 0xff, 0xff, 0xff, 0xff, 0xff, 
	0xff, 0xff, 0xff, 0xff, 0xff, 0xff, 0x7f, 0xff, 0xff, 0xff, 
	0xff, 0xff, 0xff, 0xff, 0xff, 0xff, 0xff, 0xff, 0xff, 0xff, 
	0x6f, 0xff, 0xff, 0xff, 0xff, 0xff, 0xff, 0xff, 0xff, 0xff, 
	0xff, 0xff, 0xff, 0xff, 0xff, 0xff, 0xff, 0xff, 0xff, 0xff, 
	0xff, 0xff, 0xff, 0xff, 0xff, 0xff, 0xff, 0xdf, 0xff, 0xff, 
	0xff, 0xff, 0xff, 0xff, 0xff, 0xdf, 0xff, 0xff, 0xff, 0xff, 
	0xff, 0xff, 0xff, 0xdf, 0xff, 0xff, 0xff, 0xff, 0xff, 0xff, 
	0xff, 0xff, 0xff, 0xff, 0xff, 0xff, 0xff, 0xff, 0xff, 0xff, 
	0xff, 0xff, 0xff, 0xff, 0xff, 0xff, 0xff, 0xff, 0xff, 0xff, 
	0xff, 0xff, 0xff, 0xff, 0xff, 0xff, 0xff, 0xff, 0xff, 0xff, 
	0xff, 0xff, 0xff, 0xff, 0xff, 0xff, 0xff, 0xff, 0xfd, 0xff, 
	0xff, 0xff, 0xff, 0xff, 0xff, 0xff, 0xff, 0xff, 0xff, 0xff, 
	0xff, 0xff, 0xff, 0xff, 0x7b, 0x97, 0x92, 0x75, 0xd8, 0x83, 
	0xcf, 0x8d, 0xa5, 0xa2, 0x9f, 0x6f, 0x3d, 0x46, 0xa8, 0x94, 
	0x50, 0x52, 0x7e, 0x5c, 0xd4, 0xad, 0x61, 0xc7, 0xc2, 0x8b, 
	0x80, 0xc9, 0x94, 0xcc, 0x71, 0xa6, 0x4d, 0x8f, 0x3d, 0x3d, 
	0x84, 0x36, 0x95, 0x52, 0x91, 0x5e, 0x3a, 0x5c, 0x8f, 0x53, 
	0x79, 0x75, 0x70, 0x8e, 0xaf, 0x65, 0x3e, 0xbb, 0x42, 0x84, 
	0x84, 0x52, 0x90, 0x8c, 0x6c, 0xb5, 0x77, 0xc4, 0x62, 0xaa, 
	0xa3, 0xa8, 0xa1, 0xab, 0x6f, 0x67, 0x83, 0x95, 0x4d, 0x85, 
	0xc0, 0xb3, 0x97, 0x69, 0x4c, 0xe8, 0xb6, 0x3f, 0x3c, 0x35, 
	0x5e, 0x64, 0x43, 0x5f, 0x94, 0x4f, 0xaf, 0x76, 0x65, 0x9c, 
	0x59, 0x67, 0xcf, 0x4a, 0x35, 0x4a, 0x69, 0x78, 0x82, 0x28, 
	0x80, 0x89, 0xb2, 0xad, 0x80, 0xb9, 0x9b, 0x95, 0x98, 0x60, 
	0xa1, 0x3e, 0x99, 0x96, 0xb6, 0x40, 0x54, 0x4d, 0x38, 0xd1, 
	0x43, 0x12, 0x70, 0xaa, 0xaa, 0x9f, 0x28, 0x5a, 0x37, 0x52, 
	0xaa, 0x89, 0xa5, 0x71, 0x26, 0xa6, 0x8b, 0x5e, 0x98, 0x5d, 
	0x5f, 0x9a, 0x71, 0x6c, 0x88, 0x84, 0xa1, 0x40, 0x58, 0x58, 
	0x72, 0x69, 0x7b, 0x45, 0x75, 0x48, 0x8e, 0x4b, 0xa8, 0x35, 
	0x7f, 0x5c, 0x62, 0x53, 0xa8, 0xa6, 0x89, 0x45, 0xc3, 0x56, 
	0xa7, 0x72, 0xb0, 0xb3, 0x92, 0x50, 0x3c, 0xad, 0x43, 0xb8, 
	0x74, 0x22, 0x8f, 0x8f, 0x2b, 0x6e, 0x9b, 0x8d, 0x6a, 0x93, 
	0x77, 0xa1, 0x81, 0xd1, 0xbf, 0x69, 0x9b, 0x47, 0x88, 0x76, 
	0x89, 0x5a, 0xb1, 0xa8, 0x55, 0x5d, 0x88, 0x62, 0x49, 0x93, 
	0x90, 0x7b, 0x8a, 0x9f, 0x32, 0x3b, 0xbd, 0xd1, 0xd7, 0x50, 
	0x9b, 0x35, 0x3c, 0x81, 0x5c, 0x3c, 0xb6, 0xcf, 0x71, 0x17, 
	0x45, 0xb1, 0x71, 0x64, 0x04, 0x6e, 0x49, 0x8d, 0x38, 0x87, 
	0xaa, 0x7a, 0x60, 0x8f, 0x1d, 0x42, 0x96, 0x60, 0xb1, 0xae, 
	0x70, 0xa9, 0x9e, 0x55, 0x5f, 0x6a, 0x63, 0xc4, 0x97, 0x73, 
	0x88, 0x84, 0xbe, 0x73, 0xa9, 0x8e, 0x95, 0x71, 0x36, 0x57, 
	0x12, 0xa5, 0xb9, 0x9a, 0xb4, 0xc1, 0x63, 0x9c, 0x7b, 0x50, 
	0xaf, 0x81, 0x7f, 0x9e, 0x97, 0x81, 0x8d, 0x13, 0x7b, 0xc9, 
	0x77, 0x6a, 0x4c, 0xcc, 0x4d, 0x71, 0x74, 0x8e, 0x83, 0x69, 
	0x84, 0x56, 0xb4, 0xa0, 0xac, 0x70, 0x68, 0x9e, 0xa9, 0x6e, 
	0x9d, 0x87, 0x74, 0x4b, 0x90, 0x50, 0xab, 0x7d, 0x58, 0x87, 
	0x95, 0x8e, 0xb2, 0xa7, 0xa2, 0x40, 0x75, 0x5d, 0x55, 0x63, 
	0x63, 0x99, 0x6a, 0x8c, 0x5e, 0x75, 0x5d, 0x4e, 0xc9, 0xb1, 
	0x93, 0x4d, 0xb3, 0x54, 0x77, 0x63, 0x70, 0x87, 0x79, 0xbd, 
	0x5e, 0xb8, 0x94, 0xa0, 0xc5, 0x8c, 0x69, 0x8a, 0x83, 0xd1, 
	0x7d, 0x70, 0x93, 0xb1, 0x4f, 0x4d, 0xba, 0x75, 0x61, 0xa4, 
	0x4c, 0x50, 0xa5, 0x65, 0x76, 0xb5, 0x69, 0x6a, 0xc4, 0x1b, 
	0x88, 0x89, 0x3b, 0x93, 0x65, 0x9f, 0x71, 0x79, 0x7d, 0x7b, 
	0x61, 0x84, 0x8f, 0x53, 0x80, 0xe3, 0x9b, 0x39, 0x3f, 0x8b, 
	0x68, 0x82, 0x73, 0x8e, 0x43, 0x74, 0x97, 0x33, 0x85, 0x95, 
	0x5f, 0x9f, 0x82, 0x96, 0xcc, 0x89, 0x41, 0xab, 0x36, 0x8a, 
	0xb9, 0xa4, 0x78, 0x68, 0xaf, 0x61, 0xc7, 0x82, 0x58, 0x63, 
	0xb1, 0x6f, 0x5c, 0x35, 0x34, 0x4f, 0xb0, 0x96, 0x61, 0x4f, 
	0x68, 0x72, 0x83, 0x43, 0x8e, 0xc3, 0xb6, 0x47, 0x5e, 0x72, 
	0x53, 0x84, 0xc6, 0x99, 0x6f, 0x99, 0x5f, 0x53, 0x9b, 0x45, 
	0x54, 0xa3, 0x7c, 0x98, 0x6c, 0xa1, 0x89, 0x54, 0x71, 0x8e, 
	0x9d, 0x7d, 0x5e, 0x3c, 0x42, 0x9e, 0xb8, 0x6e, 0x4d, 0x8f, 
	0xb1, 0x7e, 0xaf, 0x68, 0xbb, 0xa7, 0x3e, 0xae, 0x49, 0x4f, 
	0x79, 0x59, 0x5f, 0x74, 0x9a, 0xad, 0x8c, 0x46, 0x95, 0x63, 
	0xa6, 0x8d, 0x58, 0x7a, 0x81, 0x7f, 0x30, 0x6d, 0x70, 0xa4, 
	0xab, 0x6f, 0x52, 0x7c, 0x8d, 0x7d, 0xbf, 0x52, 0x49, 0xb9, 
	0x74, 0x84, 0x61, 0x7e, 0x9a, 0x3a, 0x51, 0x7b, 0x84, 0x87, 
	0x3a, 0x4e, 0xcf, 0x9a, 0x4b, 0x4c, 0xa3, 0x2e, 0x30, 0x69, 
	0x74, 0x68, 0xcc, 0x17, 0xaf, 0x0e, 0x8c, 0x6b, 0x98, 0xb8, 
	0x98, 0x7c, 0x8c, 0x6f, 0x91, 0x7c, 0x4b, 0xa2, 0xa0, 0x5d, 
	0x52, 0xaa, 0x48, 0x94, 0xe1, 0x4d, 0xca, 0xa4, 0x53, 0x48, 
	0xbe, 0x61, 0x54, 0x67, 0x7f, 0x51, 0xa1, 0xe0, 0xa1, 0x9d, 
	0x52, 0x7d, 0x80, 0x64, 0x70, 0x93, 0xab, 0x61, 0xa5, 0x62, 
	0x76, 0xbb, 0xa4, 0x8e, 0x92, 0x52, 0x7a, 0x43, 0x5b, 0x55, 
	0x75, 0x83, 0x65, 0x55, 0x83, 0x41, 0x61, 0x7c, 0x7a, 0x57, 
	0xad, 0xca, 0x68, 0x3f, 0x69, 0x7a, 0x62, 0x88, 0x77, 0xa4, 
	0x88, 0x50, 0x2e, 0x69, 0x98, 0x81, 0x55, 0xa5, 0x99, 0x50, 
	0xa7, 0xa6, 0xb2, 0x4e, 0xa0, 0xb4, 0x78, 0xaf, 0x9c, 0xb8, 
	0x35, 0x6d, 0x28, 0x78, 0xb5, 0x77, 0x63, 0x80, 0xb2, 0xb2, 
	0x77, 0xae, 0x43, 0x8c, 0x9d, 0x30, 0xcc, 0xc2, 0x82, 0x9d, 
	0x5a, 0xcf, 0x95, 0x76, 0xc7, 0x83, 0x66, 0x56, 0x8b, 0xb2, 
	0x49, 0x8e, 0x25, 0x7e, 0x7e, 0x77, 0x4c, 0x6e, 0xb5, 0x6b, 
	0x10, 0x65, 0x00, 0x8a, 0x42, 0x39, 0x99, 0x9a, 0xba, 0x8a, 
	0xa3, 0xca, 0x57, 0x89, 0x66, 0xaf, 0xab, 0xc7, 0xb3, 0x8d, 
	0x4c, 0x73, 0x99, 0x7d, 0x66, 0xa9, 0x25, 0x7c, 0x52, 0x85, 
	0x87, 0x45, 0xc7, 0x4f, 0xa8, 0x9a, 0x34, 0xc3, 0xa8, 0x66, 
	0x84, 0x82, 0x72, 0xa5, 0x1f, 0x79, 0x6e, 0xd5, 0x6c, 0x4b, 
	0xc3, 0xa2, 0x7f, 0x76, 0x89, 0xa9, 0x47, 0x82, 0x68, 0x47, 
	0xb5, 0x6a, 0x8f, 0x98, 0xa6, 0x49, 0xb4, 0x78, 0xb0, 0x87, 
	0x97, 0x71, 0xcb, 0x72, 0x6a, 0xa5, 0xc3, 0x88, 0x69, 0x4c, 
	0x4c, 0x9d, 0x7d, 0x23, 0x8b, 0x48, 0xba, 0x90, 0x5c, 0xc3, 
	0xae, 0x65, 0xac, 0x60, 0x3b, 0x70, 0x57, 0x8d, 0xb4, 0x5f, 
	0x82, 0x3d, 0x7c, 0x52, 0xa2, 0x4a, 0x3c, 0x74, 0x7b, 0x38, 
	0x55, 0x99, 0xbd, 0x6e, 0xab, 0xad, 0x56, 0x5a, 0x69, 0x82, 
	0x77, 0xf1, 0x40, 0xad, 0x5b, 0x0d, 0xb0, 0x65, 0x54, 0xb9, 
	0x82, 0xe4, 0x6a, 0x8b, 0x85, 0x5d, 0x8d, 0x9e, 0xbd, 0x07, 
	0x74, 0x21, 0x52, 0x9d, 0xa6, 0xb2, 0x7b, 0xc5, 0xb0, 0x61, 
	0xaf, 0x75, 0xb7, 0xa0, 0xae, 0xd8, 0xb1, 0xb0, 0x84, 0xb9, 
	0x81, 0x55, 0x93, 0x84, 0xc6, 0x73, 0x78, 0x21, 0x95, 0x52, 
	0x7a, 0x69, 0x29, 0x61, 0x79, 0x4d, 0x60, 0x69, 0x78, 0x63, 
	0xff, 0x3e, 0x72, 0x41, 0x75, 0x92, 0x50, 0xc6, 0x8b, 0x4f, 
	0xab, 0x76, 0x77, 0x41, 0x60, 0x4e, 0x76, 0xb9, 0x75, 0x79, 
	0x6d, 0x46, 0x6b, 0x15, 0x83, 0xac, 0xcc, 0xc6, 0x50, 0x6d, 
	0x42, 0x55, 0x65, 0x39, 0xd0, 0x66, 0xc0, 0x61, 0xb1, 0xb2, 
	0x82, 0x6c, 0x47, 0x64, 0x98, 0x70, 0x89, 0xc3, 0x9e, 0xa6, 
	0x73, 0x6e, 0x89, 0x84, 0x44, 0x1c, 0x88, 0x93, 0xb8, 0x75, 
	0x88, 0x75, 0x4c, 0x43, 0x9d, 0x8e, 0x8c, 0xb2, 0xc2, 0x98, 
	0x14, 0x57, 0x6c, 0xb6, 0x10, 0x87, 0xe1, 0x4a, 0x7f, 0x77, 
	0xac, 0xb8, 0x64, 0x8e, 0x84, 0x62, 0xc7, 0x69, 0x92, 0x7b, 
	0x5a, 0x50, 0xb3, 0x61, 0x1c, 0x9f, 0xa1, 0x95, 0x4b, 0x4b, 
	0x33, 0x90, 0x62, 0xbc, 0xb2, 0x45, 0xa8, 0x3f, 0x2c, 0x50, 
	0x60, 0x8a, 0x22, 0x90, 0xb9, 0xa1, 0xc2, 0x42, 0xaa, 0x7d, 
	0xb1, 0x9e, 0x90, 0x63, 0xb4, 0x39, 0x68, 0xaf, 0xbd, 0x6e, 
	0x8c, 0x95, 0xa4, 0x84, 0xac, 0x6b, 0x4a, 0xc0, 0x50, 0x9a, 
	0x85, 0x67, 0xbb, 0xaa, 0x37, 0xa3, 0x59, 0x3c, 0xaf, 0x40, 
	0xe7, 0x91, 0xbe, 0x8d, 0xaf, 0x6c, 0x69, 0x6b, 0x88, 0xa1, 
	0x94, 0xa1, 0xbe, 0xad, 0x78, 0xb7, 0x42, 0x98, 0x9d, 0xb2, 
	0xad, 0xac, 0x81, 0x55, 0x52, 0x70, 0x6c, 0x59, 0x7e, 0xd0, 
	0x7a, 0xa3, 0x81, 0x25, 0x9b, 0x78, 0xa3, 0x37, 0xa5, 0x59, 
	0x58, 0xd3, 0xb0, 0xbe, 0x7b, 0x6a, 0x2e, 0x52, 0x5b, 0x75, 
	0x69, 0x97, 0x27, 0xc4, 0x51, 0xce, 0xaf, 0x77, 0x80, 0x8f, 
	0x4e, 0x62, 0xda, 0x78, 0x9c, 0x6d, 0x4b, 0x8e, 0xa7, 0x66, 
	0xa9, 0x3b, 0x66, 0x61, 0x61, 0x9e, 0x40, 0x7e, 0x53, 0x7a, 
	0x39, 0x5f, 0x81, 0x56, 0x60, 0x69, 0x54, 0x48, 0x61, 0xa9, 
	0x77, 0x77, 0x5c, 0xde, 0x5e, 0x58, 0xaa, 0xb4, 0xb6, 0x24, 
	0x70, 0xc4, 0xb1, 0x9a, 0x64, 0xd0, 0x4c, 0x68, 0x84, 0x6c, 
	0x9d, 0xa8, 0x6c, 0x5f, 0x58, 0xa5, 0x47, 0x76, 0xa8, 0x60, 
	0x9b, 0xb5, 0x49, 0x4c, 0x66, 0xbd, 0x94, 0x92, 0x8c, 0x67, 
	0x6a, 0x91, 0x5b, 0x8c, 0x8e, 0x9a, 0x44, 0x47, 0x8a, 0xa7, 
	0xa0, 0x4f, 0x5a, 0xd1, 0x5f, 0x71, 0x76, 0x3e, 0x71, 0x84, 
	0xa1, 0xd8, 0x98, 0x56, 0x55, 0x62, 0x47, 0xac, 0x7e, 0x70, 
	0x59, 0x69, 0x7d, 0x76, 0x99, 0xa5, 0xb8, 0xab, 0x70, 0xb4, 
	0x8b, 0x55, 0xeb, 0xaa, 0xa3, 0x8c, 0x94, 0x5d, 0x50, 0xaf, 
	0x87, 0x78, 0x79, 0x95, 0x69, 0x84, 0xb6, 0x60, 0x8a, 0x6a, 
	0x94, 0x57, 0xc7, 0xb7, 0x53, 0x88, 0x69, 0xd1, 0x55, 0x5c, 
	0xa5, 0x76, 0x4d, 0x82, 0x4e, 0x7b, 0xb6, 0x93, 0x58, 0x7d, 
	0x50, 0x5f, 0x8d, 0x7b, 0x62, 0x81, 0x53, 0x59, 0x87, 0x9e, 
	0xa9, 0x5a, 0xdc, 0xb3, 0x7e, 0xc0, 0x97, 0x68, 0x3a, 0x9d, 
	0x8e, 0x8e, 0x56, 0xb9, 0xa7, 0xad, 0x5b, 0x87, 0xb4, 0x3d, 
	0xc1, 0x98, 0x7a, 0xe0, 0x4b, 0x87, 0x83, 0x66, 0x62, 0x4e, 
	0xaa, 0x72, 0x7b, 0x5d, 0xcc, 0x56, 0xd1, 0xad, 0x80, 0x76, 
	0x93, 0xa0, 0x5d, 0x52, 0x90, 0x32, 0xc1, 0xee, 0x56, 0x80, 
	0x49, 0x77, 0xac, 0xae, 0x8c, 0x96, 0x71, 0x91, 0x81, 0xa8, 
	0x8b, 0x40, 0x71, 0xd5, 0x3d, 0x7d, 0x6b, 0x5d, 0x97, 0x8b, 
	0x3d, 0xcd, 0x7a, 0x79, 0x8f, 0x9e, 0x98, 0x32, 0x2a, 0x3a, 
	0xae, 0xbf, 0x7d, 0xa1, 0x77, 0x93, 0x79, 0x78, 0x46, 0x57, 
	0x54, 0x36, 0x73, 0x80, 0x5f, 0x90, 0x7a, 0x66, 0x6a, 0x36, 
	0xc9, 0x63, 0x71, 0x55, 0xb9, 0x7f, 0xb5, 0x50, 0x53, 0x9b, 
	0x2d, 0x71, 0x6a, 0x8e, 0xa4, 0xb3, 0x67, 0x6b, 0x94, 0x96, 
	0x99, 0x50, 0x52, 0xa8, 0x63, 0x46, 0x92, 0x7a, 0x91, 0x71, 
	0xd6, 0x8c, 0x43, 0x70, 0xbd, 0x68, 0x73, 0x60, 0x67, 0xc0, 
	0x76, 0x65, 0x6c, 0xb2, 0xa3, 0x9c, 0x5a, 0x61, 0x93, 0x7f, 
	0x84, 0xf0, 0xaf, 0x0c, 0x95, 0xa4, 0xb0, 0x8e, 0x56, 0x52, 
	0x8e, 0x79, 0x37, 0x66, 0x5d, 0x88, 0x61, 0x79, 0x54, 0x8c, 
	0x94, 0x53, 0xb9, 0x5a, 0x59, 0x58, 0x75, 0x66, 0x9a, 0xa3, 
	0x24, 0x8f, 0x59, 0x55, 0x91, 0x70, 0x40, 0x23, 0x48, 0x3c, 
	0x55, 0x6b, 0x62, 0x68, 0x74, 0x64, 0xa7, 0x65, 0x4f, 0x87, 
	0xad, 0x80, 0x4b, 0x67, 0xa7, 0xa3, 0x97, 0x91, 0xa3, 0x12, 
	0x65, 0x6f, 0x7a, 0x68, 0x90, 0x25, 0xc8, 0xba, 0x42, 0xb4, 
	0x75, 0x8f, 0x72, 0xa9, 0x79, 0x95, 0xb9, 0x69, 0xc2, 0xa7, 
	0x4b, 0xa2, 0x7d, 0x96, 0x42, 0x54, 0x88, 0x82, 0x92, 0x6c, 
	0x3c, 0x7e, 0x96, 0x4d, 0x77, 0x61, 0x78, 0x51, 0x39, 0x64, 
	0x9c, 0x64, 0x9c, 0xb8, 0xe6, 0xab, 0x70, 0xa9, 0x5b, 0x50, 
	0xa3, 0xae, 0x6b, 0xbd, 0xb8, 0xa3, 0x33, 0xd0, 0x9b, 0x4d, 
	0x8c, 0xc2, 0xc9, 0x99, 0x5b, 0x57, 0x8e, 0x51, 0x64, 0x82, 
	0x5d, 0x5f, 0x50, 0x41, 0xb3, 0x87, 0xaa, 0x8a, 0x76, 0x90, 
	0xab, 0x72, 0x89, 0x5a, 0x42, 0x88, 0x6d, 0x69, 0x8d, 0x53, 
	0x9c, 0x75, 0x4c, 0xce, 0x2f, 0x76, 0x82, 0x83, 0x3c, 0x64, 
	0x41, 0x83, 0x50, 0x43, 0x97, 0xa4, 0x50, 0xcd, 0xcd, 0x50, 
	0x7c, 0x67, 0x9f, 0x39, 0x41, 0x57, 0xa8, 0x74, 0x97, 0x6b, 
	0xce, 0x9a, 0x60, 0x77, 0x90, 0xb9, 0xa8, 0x7c, 0xbc, 0xb1, 
	0x5d, 0xa2, 0x5e, 0xa0, 0x9c, 0xa1, 0x96, 0x9e, 0x4b, 0x53, 
	0x35, 0x89, 0x55, 0xa8, 0xbe, 0x80, 0x7b, 0x66, 0x80, 0x48, 
	0x62, 0x9d, 0x4b, 0x69, 0x84, 0x40, 0x9c, 0xa5, 0xa1, 0xa9, 
	0x94, 0x68, 0x77, 0x71, 0x88, 0x29, 0x9d, 0x90, 0x9f, 0xbf, 
	0xb3, 0x90, 0x9a, 0x94, 0x8f, 0x63, 0x69, 0x84, 0x70, 0x24, 
	0xba, 0x6a, 0x8d, 0x7a, 0x40, 0x70, 0x8f, 0x9b, 0xa7, 0x67, 
	0x48, 0x8a, 0x7d, 0x4f, 0x93, 0xad, 0x83, 0x36, 0x5c, 0x61, 
	0x76, 0x52, 0x6e, 0x56, 0xa1, 0x61, 0xa7, 0x8d, 0x99, 0x69, 
	0x81, 0x8c, 0x8f, 0x78, 0x80, 0x71, 0x2e, 0xa5, 0x60, 0xbc, 
	0xb2, 0x3b, 0x78, 0x9b, 0xc3, 0x6a, 0x62, 0x6e, 0x60, 0x88, 
	0xab, 0x5c, 0xb2, 0x36, 0x5e, 0x5d, 0x28, 0xbd, 0x64, 0x7c, 
	0x5f, 0xbd, 0x83, 0x7d, 0xa4, 0x9f, 0x64, 0x67, 0x56, 0x6f, 
	0xa1, 0x2b, 0x6e, 0x6f, 0x7f, 0x83, 0xc2, 0x1f, 0xa8, 0xbf, 
	0x55, 0x6d, 0x5d, 0x76, 0x7a, 0x8b, 0x99, 0x7d, 0x65, 0x6e, 
	0xb8, 0x8f, 0x8b, 0xba, 0x82, 0x88, 0xb3, 0x7d, 0x79, 0x7b, 
	0x1a, 0xa0, 0x66, 0x9a, 0x7f, 0x67, 0xf0, 0x74, 0x85, 0xb0, 
	0x5f, 0x53, 0xc1, 0x75, 0x6d, 0x3a, 0x7c, 0x50, 0x94, 0x74, 
	0xc3, 0x79, 0x5c, 0x79, 0xf3, 0x49, 0x4b, 0x7b, 0xcf, 0x75, 
	0xc2, 0xc8, 0x4d, 0x6a, 0x39, 0xd0, 0xbb, 0x7b, 0xd0, 0x69, 
	0x40, 0xc2, 0xa5, 0x6b, 0x88, 0x8e, 0x63, 0x9a, 0x41, 0x8f, 
	0xda, 0x44, 0xbf, 0x50, 0x76, 0x8c, 0x46, 0xc1, 0x56, 0x74, 
	0x33, 0x87, 0xa9, 0x36, 0x66, 0x70, 0x6e, 0xa0, 0x82, 0x85, 
	0x92, 0xb1, 0x4b, 0x33, 0xb0, 0xa4, 0x7c, 0x4d, 0xab, 0x99, 
	0x6f, 0x73, 0xb8, 0x90, 0xc1, 0x51, 0x8f, 0xdc, 0xc1, 0x35, 
	0x84, 0xb4, 0x83, 0x89, 0xc9, 0xaa, 0x5e, 0xc0, 0x5a, 0xc1, 
	0x92, 0x3f, 0x98, 0x27, 0x7e, 0xb1, 0x34, 0xa4, 0x5a, 0xb2, 
	0x72, 0x9e, 0x7d, 0x6e, 0xa6, 0xbf, 0x7c, 0x39, 0x8b, 0x6e, 
	0x5b, 0x63, 0x99, 0xa0, 0x87, 0xc6, 0x70, 0x78, 0x57, 0x6d, 
	0x46, 0x9f, 0xa7, 0x89, 0xce, 0x68, 0xa5, 0x5e, 0x6f, 0x62, 
	0x7e, 0x28, 0x83, 0x2c, 0x4d, 0x85, 0x5d, 0x85, 0x54, 0x6d, 
	0xa5, 0x9d, 0x64, 0x71, 0x5a, 0x6c, 0x84, 0x3f, 0xcc, 0x30, 
	0x8d, 0x61, 0x69, 0x63, 0x8c, 0x61, 0x2e, 0x33, 0xce, 0xa3, 
	0x7b, 0x5d, 0x59, 0x98, 0x92, 0x71, 0x49, 0xd7, 0x96, 0xb7, 
	0x71, 0x41, 0x51, 0x91, 0xb0, 0x8a, 0xd5, 0xc6, 0x62, 0x64, 
	0x65, 0xa8, 0x82, 0xce, 0xa8, 0x97, 0xc8, 0x99, 0xb0, 0xcf, 
	0x68, 0x4b, 0x64, 0xc0, 0x8a, 0xad, 0x2f, 0x61, 0x56, 0x77, 
	0xd2, 0x76, 0x5b, 0x7d, 0xc4, 0x9d, 0x5f, 0x48, 0xa7, 0xe4, 
	0x89, 0xc7, 0x46, 0x9f, 0xa0, 0x8c, 0xc2, 0xa3, 0xa6, 0xd4, 
	0x2c, 0xb2, 0x5f, 0x65, 0x7d, 0xb5, 0x72, 0xac, 0x7f, 0x3e, 
	0x78, 0x64, 0xd5, 0x4f, 0x7a, 0x73, 0x98, 0xa0, 0x8f, 0x50, 
	0x6f, 0x88, 0x1e, 0x77, 0xbd, 0x9e, 0x74, 0x5e, 0x46, 0x8e, 
	0x70, 0x5a, 0x56, 0x5b, 0x2c, 0x66, 0x3f, 0xa7, 0x32, 0x22, 
	0xa6, 0x60, 0x96, 0x9a, 0x87, 0x88, 0x99, 0x84, 0xc0, 0xba, 
	0x9c, 0x91, 0x3d, 0xda, 0x7d, 0x56, 0x99, 0x7b, 0xaf, 0x7c, 
	0x55, 0xe3, 0x31, 0xaf, 0x87, 0x4e, 0x6e, 0x96, 0x38, 0x8a, 
	0x36, 0x75, 0x5e, 0x8c, 0xa6, 0x00, 0x17, 0x14, 0x5d, 0x1a, 
	0xa6, 0x95, 0x31, 0x94, 0xa7, 0x8e, 0x21, 0x99, 0xed, 0x95, 
	0x40, 0x1d, 0x32, 0x84, 0xaa, 0x15, 0xb6, 0x95, 0x81, 0x91, 
	0x43, 0x11, 0xad, 0x08, 0xd2, 0x97, 0x27, 0x12, 0x74, 0x1d, 
	0x50, 0x15, 0x74, 0x96, 0x6f, 0x98, 0x0a, 0x97, 0x2c, 0x92, 
	0xa3, 0x1a, 0x82, 0x0e, 0x3c, 0x0b, 0xe8, 0x0e, 0xe1, 0x88, 
	0x26, 0x97, 0x25, 0x98, 0x9f, 0x10, 0x3a, 0x8c, 0x35, 0x16, 
	0xd5, 0x88, 0x34, 0x85, 0xe7, 0x19, 0x41, 0x1a, 0xcc, 0x97, 
	0xad, 0x90, 0x95, 0x07, 0xfe, 0x0e, 0x9f, 0x0b, 0x13, 0x1a, 
	0x44, 0x8a, 0x32, 0x15, 0xe0, 0x8f, 0x85, 0x9a, 0xd1, 0x92, 
	0x08, 0x8c, 0x29, 0x0d, 0x35, 0x17, 0xa4, 0x87, 0xd5, 0x12, 
	0xed, 0x95, 0x1a, 0x14, 0x51, 0x90, 0x3b, 0x19, 0xf6, 0x18, 
	0x95, 0x93, 0xb1, 0x89, 0x22, 0x11, 0x91, 0x1d, 0xd0, 0x16, 
	0xf2, 0x97, 0x46, 0x8d, 0xcb, 0x41, 0xf6, 0x40, 0x67, 0x40, 
	0x0a, 0x41, 0x57, 0x3f, 0x77, 0x3e, 0x71, 0x3f, 0xd8, 0x41, 
	0x7b, 0x39, 0x7f, 0x40, 0x62, 0x40, 0xb1, 0x3e, 0xe3, 0x3f, 
	0x7d, 0x3f, 0xaf, 0x40, 0xb0, 0x3e, 0x98, 0x3f, 0x0b, 0x40, 
	0x89, 0x41, 0x37, 0x41, 0x1e, 0x3e, 0xdc, 0x3e, 0x1e, 0x40, 
	0x8f, 0x3f, 0xb4, 0x3e, 0x5d, 0x3f, 0x90, 0x40, 0x6f, 0x3e, 
	0xfc, 0x3e, 0xab, 0x40, 0xe5, 0x3d, 0x26, 0x3e, 0x84, 0x3b, 
	0x3e, 0x3e, 0x5b, 0x3f, 0xd3, 0x3f, 0xee, 0x40, 0x2d, 0x3d, 
	0x8b, 0x3c, 0xc6, 0x3f, 0x6d, 0x40, 0xc3, 0x40, 0x7f, 0x3b, 
	0x1a, 0x3f, 0x78, 0x3f, 0xf4, 0x40, 0xdd, 0x3d, 0xd6, 0x3f, 
	0xdb, 0x3e, 0xec, 0x3e, 0xe1, 0x39, 0x47, 0x40, 0x14, 0x3d, 
	0xa0, 0x40, 0xd1, 0x40, 0x53, 0x3e, 0x1b, 0x41, 0x70, 0x3d, 
	0xa0, 0x3f, 0x61, 0x3c, 0x33, 0x3f, 0x5b, 0x3f, 0x9b, 0x40, 
	0x09, 0x40, 0xce, 0x2e, 0x99, 0x3c, 0xd7, 0xb8, 0x86, 0x42, 
	0x1c, 0x39, 0x85, 0x32, 0xd8, 0x2e, 0xdf, 0x37, 0x5b, 0xb8, 
	0x10, 0x3b, 0xc9, 0x3a, 0xae, 0x36, 0x13, 0x33, 0xe5, 0x35, 
	0x3f, 0xba, 0x3f, 0xb8, 0xa7, 0x3a, 0x1d, 0x38, 0xc2, 0xbc, 
	0x6c, 0x38, 0x8e, 0x38, 0xe8, 0x35, 0x6c, 0x3d, 0x75, 0x3b, 
	0x1c, 0xb9, 0x4b, 0x3c, 0x51, 0xb2, 0x57, 0x36, 0x16, 0x3b, 
	0xad, 0xb1, 0x7d, 0xb6, 0xdf, 0xb0, 0x97, 0xba, 0x86, 0xb8, 
	0x6f, 0x29, 0x46, 0x37, 0x7c, 0x35, 0x1a, 0xb9, 0x0f, 0xba, 
	0x13, 0x34, 0x99, 0x39, 0x13, 0x39, 0xa0, 0xbb, 0xbf, 0x34, 
	0xd5, 0xb6, 0xe9, 0x36, 0x93, 0x3b, 0xe1, 0xb5, 0x2b, 0x38, 
	0x13, 0xad, 0x5a, 0xbb, 0x8b, 0x3b, 0x6e, 0xb7, 0x2e, 0x3c, 
	0xf3, 0xba, 0xec, 0x3a, 0x95, 0x35, 0x1e, 0x3a, 0xa5, 0x35, 
	0x8e, 0x3a, 0x7c, 0x3b, 0xae, 0x3c, 0x2b, 0x41, 0x65, 0x30, 
	0x00, 0xbc, 0x00, 0x3c, 0x00, 0x54, 0x00, 0x00, 0x00, 0x00, 
	0x00, 0x00, 0x00, 0x00, 0x00, 0x3c, 0x00, 0x00, 0x00, 0x3c, 
	0x00, 0x3c, 0x00, 0x3c, 0x00, 0x3c, 0xff, 0xfd, 0xff, 0xff, 
	0xff, 0xff, 0xfb, 0xff, 0xbf, 0xff, 0xbf, 0xf7, 0xff, 0xff, 
	0xff, 0xff, 0xff, 0xff, 0xfe, 0xff, 0xff, 0xdd, 0xff, 0xff, 
	0xff, 0xff, 0xff, 0xff, 0xff, 0xff, 0xff, 0xff, 0xfe, 0xff, 
	0xfd, 0xff, 0xbf, 0xff, 0xff, 0xff, 0xff, 0xff, 0xff, 0xff, 
	0xff, 0xff, 0xff, 0xff, 0xff, 0xff, 0xff, 0xbf, 0xff, 0xff, 
	0xef, 0xff, 0xff, 0xff, 0xff, 0xff, 0xff, 0xff, 0xff, 0xff, 
	0xfd, 0xdf, 0xff, 0xff, 0xff, 0xf7, 0xff, 0xff, 0xff, 0xff, 
	0xfd, 0xff, 0xff, 0xff, 0xff, 0xff, 0xbf, 0xff, 0xff, 0xff, 
	0xff, 0xff, 0xff, 0xf7, 0xff, 0xff, 0xff, 0xff, 0xff, 0xff, 
	0xff, 0xff, 0xff, 0xff, 0xff, 0xff, 0xff, 0x7f, 0xff, 0xbf, 
	0xff, 0xff, 0xff, 0xff, 0xff, 0xbf, 0xff, 0xff, 0xff, 0xff, 
	0xff, 0xff, 0xff, 0xff, 0xff, 0xff, 0xff, 0xff, 0xff, 0xff, 
	0xff, 0xff, 0xf7, 0xf7, 0xff, 0xff, 0xff, 0xff, 0xff, 0xff, 
	0xff, 0xff, 0xff, 0xff, 0xff, 0xff, 0xff, 0xff, 0xff, 0xff, 
	0xff, 0xff, 0xff, 0xff, 0xff, 0xff, 0xff, 0xff, 0xff, 0x7f, 
	0xff, 0xdf, 0xff, 0xff, 0xff, 0xff, 0xff, 0xff, 0xff, 0xff, 
	0xff, 0xff, 0xff, 0xff, 0xfd, 0xff, 0xff, 0xff, 0xff, 0xff, 
	0xff, 0xdf, 0xff, 0xef, 0xff, 0xff, 0x77, 0xff, 0xff, 0xff, 
	0xff, 0xff, 0xff, 0xff, 0xff, 0xff, 0xff, 0xff, 0xfe, 0xff, 
	0xfd, 0xff, 0xff, 0xff, 0xff, 0xef, 0xff, 0xff, 0xff, 0xff, 
	0xff, 0xbf, 0xff, 0xff, 0xff, 0xff, 0xff, 0xff, 0xff, 0xff, 
	0xff, 0xff, 0xff, 0xff, 0xff, 0xff, 0xff, 0xff, 0xff, 0xff, 
	0xff, 0xff, 0xff, 0xbf, 0xff, 0xff, 0xff, 0xff, 0xff, 0xfb, 
	0xff, 0xf7, 0xff, 0xff, 0xff, 0xff, 0xff, 0xff, 0xff, 0xff, 
	0xff, 0xff, 0xff, 0xff, 0xff, 0xff, 0xff, 0xff, 0xff, 0xff, 
	0xff, 0xfb, 0xff, 0xff, 0xff, 0xff, 0xff, 0xff, 0xff, 0xff, 
	0xff, 0xff, 0xff, 0xff, 0xff, 0xff, 0xff, 0xff, 0xff, 0xff, 
	0xff, 0xff, 0xef, 0xff, 0xff, 0xff, 0xff, 0xff, 0xff, 0xff, 
	0x77, 0xfb, 0xff, 0xff, 0xff, 0xff, 0xef, 0xff, 0xff, 0xff, 
	0xff, 0xff, 0xff, 0xff, 0xff, 0xff, 0xff, 0xff, 0xff, 0xff, 
	0xff, 0xff, 0xff, 0xff, 0xff, 0xff, 0xff, 0xff, 0xef, 0xff, 
	0xff, 0xff, 0xff, 0xff, 0xff, 0xff, 0xfb, 0xff, 0xff, 0xff, 
	0xbf, 0xff, 0xff, 0xff, 0xff, 0xff, 0xff, 0xff, 0xff, 0xff, 
	0xff, 0xff, 0xff, 0xff, 0xff, 0xf7, 0xff, 0xff, 0xff, 0xff, 
	0xff, 0xff, 0xff, 0xff, 0xff, 0xf7, 0xff, 0xff, 0xff, 0xff, 
	0xff, 0xff, 0xff, 0xff, 0xff, 0xff, 0xdf, 0xff, 0xff, 0xff, 
	0xff, 0xff, 0xff, 0xff, 0xff, 0xff, 0xff, 0xff, 0xff, 0xff, 
	0xff, 0xfd, 0xff, 0xff, 0xff, 0xff, 0xff, 0xff, 0xff, 0xff, 
	0x7d, 0xdf, 0xff, 0xdf, 0xff, 0xff, 0xff, 0xff, 0xff, 0xff, 
	0xff, 0xff, 0xff, 0xff, 0xff, 0xff, 0xff, 0xff, 0xff, 0xff, 
	0xff, 0xff, 0xff, 0xff, 0xff, 0xff, 0x77, 0xff, 0xff, 0xff, 
	0xff, 0xff, 0xff, 0xff, 0xf7, 0xbf, 0xff, 0xff, 0xff, 0xff, 
	0xff, 0xff, 0xff, 0xef, 0xff, 0xf7, 0xff, 0x7f, 0xff, 0xf7, 
	0xff, 0xff, 0xef, 0xff, 0xff, 0xff, 0xff, 0xff, 0xff, 0xff, 
	0xff, 0xff, 0xff, 0xf7, 0xf7, 0xff, 0xff, 0xff, 0xff, 0xff, 
	0xff, 0xff, 0xff, 0xff, 0xff, 0xff, 0xff, 0xff, 0xff, 0xbf, 
	0xcf, 0xff, 0xff, 0xff, 0xff, 0xff, 0xff, 0xdf, 0xff, 0xff, 
	0xff, 0xff, 0xff, 0xff, 0x7f, 0x7f, 0xff, 0xff, 0xff, 0xef, 
	0xff, 0xff, 0xff, 0xff, 0xfb, 0xff, 0xff, 0xff, 0xff, 0xff, 
	0xff, 0xff, 0xef, 0xff, 0xff, 0x7f, 0xff, 0xff, 0xff, 0xff, 
	0xff, 0xff, 0xff, 0xdf, 0xff, 0xff, 0xff, 0xff, 0xff, 0xf7, 
	0xff, 0xff, 0xef, 0xff, 0x3f, 0xff, 0xff, 0xde, 0xdf, 0xff, 
	0xff, 0xff, 0xff, 0xff, 0xff, 0xff, 0xff, 0xff, 0xff, 0xff, 
	0xff, 0xff, 0xfe, 0xf7, 0xf7, 0xff, 0xff, 0xff, 0xff, 0xfd, 
	0xff, 0xff, 0xff, 0xff, 0xff, 0xff, 0xff, 0xff, 0x7f, 0xff, 
	0xff, 0xff, 0xff, 0xef, 0xff, 0xff, 0xff, 0xff, 0xfe, 0xff, 
	0x7f, 0xfe, 0xff, 0xff, 0xff, 0xff, 0xff, 0xff, 0xef, 0xff, 
	0xff, 0xff, 0xff, 0xff, 0xfb, 0xff, 0xff, 0xff, 0xff, 0xff, 
	0xff, 0xff, 0xff, 0xff, 0xff, 0xff, 0xff, 0xff, 0xff, 0xff, 
	0xff, 0xff, 0xff, 0xff, 0xff, 0xff, 0xff, 0xef, 0xff, 0xff, 
	0xff, 0xff, 0xef, 0xff, 0xff, 0xff, 0xff, 0xff, 0xff, 0xfd, 
	0x7f, 0xf7, 0xff, 0xff, 0xff, 0xbf, 0x7f, 0xff, 0xff, 0xff, 
	0xff, 0xff, 0xff, 0xff, 0xff, 0xff, 0xff, 0xff, 0xff, 0xff, 
	0xff, 0xff, 0xff, 0xff, 0xff, 0xff, 0xfe, 0xff, 0xff, 0xff, 
	0xff, 0xff, 0xff, 0xff, 0xff, 0xfd, 0xff, 0xff, 0xbf, 0xf7, 
	0xbf, 0xff, 0xff, 0xff, 0xbf, 0xef, 0xff, 0xff, 0xbb, 0xff, 
	0x7f, 0xff, 0xff, 0xfb, 0x7f, 0xff, 0xff, 0xdf, 0xff, 0xff, 
	0xff, 0xff, 0xff, 0xff, 0xff, 0xff, 0xff, 0xe7, 0xff, 0xff, 
	0xff, 0xff, 0xff, 0xff, 0xff, 0xff, 0xff, 0xff, 0x7f, 0xff, 
	0xff, 0xff, 0xff, 0xff, 0xff, 0xff, 0xff, 0xff, 0xfd, 0xff, 
	0xfb, 0xff, 0xff, 0xff, 0xff, 0xff, 0xff, 0xff, 0xdd, 0x7f, 
	0xff, 0xff, 0xff, 0xfb, 0xff, 0xff, 0xff, 0xff, 0xff, 0xff, 
	0xff, 0xff, 0xff, 0xff, 0xbf, 0xff, 0xff, 0xff, 0xf7, 0xbf, 
	0xff, 0xff, 0xff, 0xff, 0xff, 0xff, 0xff, 0xff, 0xff, 0xff, 
	0xff, 0xfb, 0xff, 0xff, 0xff, 0xf7, 0xff, 0xff, 0xfe, 0xff, 
	0xff, 0xff, 0xdf, 0xff, 0x77, 0xff, 0xf7, 0xfe, 0xff, 0xff, 
	0xfb, 0xff, 0xff, 0xff, 0xff, 0xfd, 0xbf, 0xff, 0xff, 0xff, 
	0xff, 0xff, 0x9f, 0xbf, 0xff, 0xff, 0xff, 0xff, 0xff, 0xff, 
	0xff, 0xff, 0xff, 0xfd, 0xff, 0xff, 0xdf, 0xff, 0xff, 0xff, 
	0xff, 0xff, 0xff, 0xff, 0xff, 0xff, 0xff, 0xff, 0xef, 0xff, 
	0xff, 0xff, 0xff, 0xff, 0xfb, 0xff, 0xff, 0xff, 0xff, 0xff, 
	0xff, 0xff, 0xff, 0xff, 0xff, 0xff, 0x7f, 0xfb, 0xff, 0xff, 
	0xff, 0xff, 0xff, 0xfd, 0xff, 0xff, 0xff, 0x7f, 0xff, 0xff, 
	0xff, 0xff, 0xff, 0xfe, 0xff, 0xff, 0xff, 0xff, 0xff, 0xb7, 
	0xff, 0xff, 0xff, 0xff, 0xff, 0xff, 0xff, 0xff, 0xff, 0xff, 
	0xff, 0xff, 0xdf, 0xff, 0xff, 0xff, 0xff, 0xff, 0xff, 0xff, 
	0xff, 0xff, 0xff, 0xff, 0xdd, 0xfb, 0xfd, 0xff, 0xff, 0xff, 
	0xff, 0xff, 0xff, 0xf7, 0xff, 0xff, 0xff, 0xff, 0xff, 0xff, 
	0xff, 0xfd, 0xff, 0xff, 0xff, 0xff, 0xff, 0xff, 0xff, 0xff, 
	0xff, 0xff, 0xff, 0xff, 0xff, 0xef, 0xff, 0xff, 0xff, 0xff, 
	0xff, 0xff, 0xff, 0xfd, 0xff, 0xff, 0xff, 0xff, 0xff, 0xff, 
	0xff, 0xff, 0xff, 0xff, 0xff, 0xff, 0xff, 0xff, 0xfb, 0xff, 
	0xff, 0xff, 0xff, 0xff, 0xff, 0xff, 0xff, 0xff, 0xff, 0xff, 
	0xff, 0xff, 0xff, 0xff, 0xff, 0xff, 0xff, 0x7f, 0xff, 0xff, 
	0xff, 0xff, 0xdf, 0xff, 0xff, 0xff, 0xff, 0xff, 0xff, 0xff, 
	0xff, 0xff, 0xff, 0xff, 0xef, 0xff, 0xff, 0xfd, 0xff, 0xf7, 
	0x7f, 0xff, 0xff, 0xff, 0xef, 0xff, 0xbf, 0x7f, 0xff, 0xbb, 
	0xfb, 0xbf, 0xff, 0xff, 0xff, 0xff, 0xff, 0xff, 0xfb, 0xff, 
	0xff, 0xff, 0xff, 0xff, 0xff, 0xff, 0xff, 0xff, 0xfb, 0xff, 
	0xff, 0xff, 0xff, 0xff, 0xff, 0xff, 0xef, 0xff, 0xff, 0xff, 
	0xff, 0xbf, 0xff, 0xef, 0xff, 0xfd, 0xff, 0xff, 0xff, 0xff, 
	0xff, 0xff, 0xff, 0xff, 0xef, 0xff, 0xff, 0xff, 0xff, 0xff, 
	0xff, 0xff, 0xff, 0xff, 0xff, 0xff, 0xff, 0xff, 0xff, 0xff, 
	0xff, 0xff, 0xff, 0xff, 0xf7, 0xff, 0xff, 0xbf, 0xff, 0xaf, 
	0xff, 0xff, 0xef, 0xf7, 0xf7, 0xff, 0xff, 0xf7, 0xff, 0xff, 
	0xff, 0xff, 0xff, 0xff, 0xff, 0xff, 0xff, 0xff, 0xff, 0xff, 
	0xff, 0xff, 0xff, 0xfe, 0xff, 0xff, 0xff, 0xff, 0xfd, 0xff, 
	0xff, 0xff, 0xff, 0xff, 0xff, 0xff, 0xff, 0x7f, 0xff, 0xdf, 
	0xff, 0xff, 0xff, 0xff, 0xff, 0xff, 0xff, 0xff, 0xff, 0xff, 
	0xf7, 0xff, 0xfd, 0xff, 0xff, 0xfb, 0xff, 0xff, 0xff, 0xff, 
	0xff, 0xff, 0xff, 0xff, 0xff, 0xff, 0xff, 0xff, 0xff, 0xff, 
	0xff, 0xff, 0xff, 0xff, 0xff, 0x7f, 0xfb, 0xff, 0xff, 0xff, 
	0xff, 0xff, 0xff, 0xff, 0xff, 0xff, 0xf5, 0xff, 0xff, 0xff, 
	0xff, 0xff, 0xff, 0xfb, 0xff, 0xff, 0xff, 0xff, 0xff, 0xff, 
	0xff, 0xff, 0xff, 0xff, 0xfd, 0xfd, 0xf7, 0xff, 0xff, 0xff, 
	0xff, 0xf7, 0x7f, 0xff, 0xbf, 0xff, 0xff, 0xff, 0xff, 0xff, 
	0xff, 0xff, 0xff, 0xff, 0xff, 0xfb, 0xfb, 0xff, 0xff, 0xff, 
	0xff, 0xff, 0xf7, 0xff, 0xff, 0xff, 0xff, 0xff, 0xbf, 0xff, 
	0xff, 0xff, 0xff, 0xff, 0xff, 0xff, 0xff, 0xff, 0xef, 0xff, 
	0xff, 0xff, 0xff, 0xff, 0xfe, 0xff, 0xff, 0xff, 0xff, 0xbf, 
	0xff, 0xff, 0xff, 0xff, 0xff, 0xff, 0xff, 0xff, 0xff, 0xff, 
	0xff, 0xff, 0xff, 0xff, 0xff, 0xff, 0xff, 0xff, 0xff, 0xff, 
	0xff, 0xfe, 0xff, 0xff, 0xff, 0xff, 0xfd, 0xff, 0xff, 0xff, 
	0xff, 0xff, 0xff, 0x7f, 0xff, 0xff, 0xff, 0xff, 0xff, 0xff, 
	0xff, 0xff, 0xff, 0xfe, 0xff, 0xfd, 0xff, 0xff, 0xff, 0xff, 
	0xff, 0xff, 0xff, 0xfb, 0xff, 0xe7, 0xff, 0xff, 0xff, 0xff, 
	0xff, 0xff, 0xff, 0xff, 0xff, 0xff, 0xff, 0x7f, 0xff, 0xff, 
	0xff, 0xff, 0xff, 0xff, 0xff, 0xfb, 0xff, 0xff, 0xbf, 0xff, 
	0xff, 0xff, 0xff, 0xff, 0xff, 0xff, 0xff, 0xff, 0xff, 0xff, 
	0xff, 0xff, 0xff, 0xff, 0xff, 0xff, 0xff, 0xff, 0xf9, 0xfb, 
	0xff, 0xf7, 0xff, 0xff, 0xff, 0xff, 0xef, 0xff, 0xff, 0xff, 
	0xff, 0xff, 0xff, 0xff, 0xff, 0xff, 0xff, 0xff, 0xff, 0x7f, 
	0xff, 0xff, 0xff, 0xff, 0xff, 0xff, 0xff, 0xff, 0xff, 0xff, 
	0xff, 0xff, 0xff, 0xff, 0xff, 0xff, 0xfb, 0xff, 0xff, 0xff, 
	0xff, 0xff, 0xff, 0xff, 0xff, 0xff, 0xff, 0xff, 0xff, 0xff, 
	0xdf, 0xff, 0xff, 0xff, 0xff, 0xff, 0xff, 0xff, 0xff, 0xff, 
	0xff, 0xff, 0xff, 0xff, 0xff, 0xff, 0xff, 0xff, 0xff, 0xef, 
	0xff, 0xff, 0xff, 0xff, 0xff, 0xff, 0xff, 0xff, 0xff, 0xff, 
	0xff, 0xff, 0xff, 0xff, 0xff, 0xff, 0xff, 0xff, 0xff, 0xff, 
	0xff, 0xfe, 0xff, 0xfe, 0xef, 0xff, 0xff, 0xff, 0x7f, 0xff, 
	0xff, 0xff, 0xf7, 0xff, 0xff, 0xff, 0xff, 0xdf, 0xff, 0xff, 
	0xff, 0xff, 0xff, 0xff, 0xff, 0xff, 0xff, 0xff, 0xff, 0xff, 
	0xff, 0xff, 0xff, 0xf7, 0xff, 0xff, 0xff, 0xff, 0xff, 0xff, 
	0xff, 0xdf, 0xff, 0xff, 0xff, 0xff, 0xff, 0xff, 0xff, 0xff, 
	0xff, 0xff, 0xff, 0xff, 0xff, 0xff, 0xff, 0xdf, 0xff, 0xff, 
	0xff, 0xff, 0xff, 0xff, 0xf7, 0xff, 0xff, 0xfd, 0xff, 0xff, 
	0xff, 0xff, 0xff, 0xff, 0xff, 0xff, 0xff, 0xff, 0xff, 0xff, 
